{
  "<PAD>": 0,
  "<UNK>": 1,
  "<BOS>": 2,
  "<EOS>": 3,
  "!": 4,
  "\"": 5,
  "#": 6,
  "$": 7,
  "%": 8,
  "&": 9,
  "'": 10,
  "(": 11,
  ")": 12,
  "*": 13,
  "+": 14,
  ",": 15,
  "-": 16,
  ".": 17,
  "/": 18,
  "0": 19,
  "1": 20,
  "2": 21,
  "3": 22,
  "4": 23,
  "5": 24,
  "6": 25,
  "7": 26,
  "8": 27,
  "9": 28,
  ":": 29,
  ";": 30,
  "<": 31,
  "=": 32,
  ">": 33,
  "?": 34,
  "A": 35,
  "B": 36,
  "C": 37,
  "D": 38,
  "E": 39,
  "F": 40,
  "G": 41,
  "H": 42,
  "I": 43,
  "J": 44,
  "K": 45,
  "L": 46,
  "M": 47,
  "N": 48,
  "O": 49,
  "P": 50,
  "Q": 51,
  "R": 52,
  "S": 53,
  "T": 54,
  "U": 55,
  "V": 56,
  "W": 57,
  "X": 58,
  "Y": 59,
  "Z": 60,
  "[": 61,
  "]": 62,
  "^": 63,
  "`": 64,
  "a": 65,
  "b": 66,
  "c": 67,
  "d": 68,
  "e": 69,
  "f": 70,
  "g": 71,
  "h": 72,
  "i": 73,
  "j": 74,
  "k": 75,
  "l": 76,
  "m": 77,
  "n": 78,
  "o": 79,
  "p": 80,
  "q": 81,
  "r": 82,
  "s": 83,
  "t": 84,
  "u": 85,
  "v": 86,
  "w": 87,
  "x": 88,
  "y": 89,
  "z": 90,
  "~": 91,
  "°": 92,
  "±": 93,
  "²": 94,
  "³": 95,
  "·": 96,
  "¹": 97,
  "½": 98,
  "×": 99,
  "á": 100,
  "è": 101,
  "é": 102,
  "í": 103,
  "ñ": 104,
  "ö": 105,
  "ø": 106,
  "ü": 107,
  "Δ": 108,
  "Λ": 109,
  "Σ": 110,
  "α": 111,
  "γ": 112,
  "ε": 113,
  "η": 114,
  "θ": 115,
  "λ": 116,
  "τ": 117,
  "ω": 118,
  "ᵢ": 119,
  "–": 120,
  "—": 121,
  "’": 122,
  "⁰": 123,
  "⁴": 124,
  "⁵": 125,
  "⁶": 126,
  "⁷": 127,
  "⁸": 128,
  "⁹": 129,
  "⁺": 130,
  "⁻": 131,
  "₀": 132,
  "₁": 133,
  "₂": 134,
  "₃": 135,
  "₄": 136,
  "₅": 137,
  "₆": 138,
  "₇": 139,
  "₈": 140,
  "₊": 141,
  "₋": 142,
  "ₙ": 143,
  "ℏ": 144,
  "→": 145,
  "⇌": 146,
  "√": 147,
  "≈": 148,
  "≥": 149,
  "in": 150,
  "th": 151,
  "on": 152,
  "an": 153,
  "er": 154,
  "en": 155,
  "ti": 156,
  "es": 157,
  "the": 158,
  "al": 159,
  "re": 160,
  "or": 161,
  "is": 162,
  "at": 163,
  "and": 164,
  "tion": 165,
  "ar": 166,
  "ing": 167,
  "ed": 168,
  "ro": 169,
  "ic": 170,
  "of": 171,
  "le": 172,
  "st": 173,
  "it": 174,
  "to": 175,
  "ent": 176,
  "ac": 177,
  "as": 178,
  "ation": 179,
  "ce": 180,
  "co": 181,
  "he": 182,
  "tr": 183,
  "un": 184,
  "ec": 185,
  "for": 186,
  "lo": 187,
  "de": 188,
  "li": 189,
  "ur": 190,
  "pro": 191,
  "ly": 192,
  "ve": 193,
  "ment": 194,
  "**": 195,
  "si": 196,
  "mp": 197,
  "ul": 198,
  "con": 199,
  "The": 200,
  "ter": 201,
  "s,": 202,
  "di": 203,
  "us": 204,
  "ol": 205,
  "ch": 206,
  "ab": 207,
  "mo": 208,
  "ap": 209,
  "qu": 210,
  "me": 211,
  "il": 212,
  "gh": 213,
  "ir": 214,
  "ex": 215,
  "ver": 216,
  "s.": 217,
  "se": 218,
  "id": 219,
  "uc": 220,
  "wh": 221,
  "ate": 222,
  "be": 223,
  "ith": 224,
  "ity": 225,
  "po": 226,
  "ri": 227,
  "per": 228,
  "tic": 229,
  "are": 230,
  "res": 231,
  "su": 232,
  "with": 233,
  "sp": 234,
  "ad": 235,
  "ma": 236,
  "ut": 237,
  "ge": 238,
  "ra": 239,
  "by": 240,
  "und": 241,
  "ts": 242,
  "fic": 243,
  "pl": 244,
  "el": 245,
  "ence": 246,
  "ure": 247,
  "um": 248,
  "lec": 249,
  "ci": 250,
  "om": 251,
  "form": 252,
  "ical": 253,
  "hi": 254,
  "comp": 255,
  "rom": 256,
  "that": 257,
  "ces": 258,
  "no": 259,
  "end": 260,
  "ain": 261,
  "from": 262,
  "dis": 263,
  "ne": 264,
  "str": 265,
  "es,": 266,
  "In": 267,
  "ant": 268,
  "ance": 269,
  "ke": 270,
  "em": 271,
  "ef": 272,
  "ers": 273,
  "gen": 274,
  "so": 275,
  "est": 276,
  "ll": 277,
  "par": 278,
  "ay": 279,
  "cl": 280,
  "ud": 281,
  "all": 282,
  "ated": 283,
  "sion": 284,
  "fi": 285,
  "tive": 286,
  "gy": 287,
  "te": 288,
  "iz": 289,
  "ere": 290,
  "ph": 291,
  "erv": 292,
  "ion": 293,
  "##": 294,
  "low": 295,
  "gn": 296,
  "ary": 297,
  "ugh": 298,
  "istr": 299,
  "tw": 300,
  "es.": 301,
  "ine": 302,
  "ther": 303,
  "sy": 304,
  "ect": 305,
  "am": 306,
  "pe": 307,
  "com": 308,
  "duc": 309,
  "'s": 310,
  "vi": 311,
  "Th": 312,
  "ener": 313,
  "od": 314,
  "enti": 315,
  "rec": 316,
  "ations": 317,
  "elec": 318,
  "able": 319,
  "),": 320,
  "action": 321,
  "act": 322,
  "ich": 323,
  "rough": 324,
  "ran": 325,
  "red": 326,
  "der": 327,
  "ard": 328,
  "ust": 329,
  "ial": 330,
  "istry": 331,
  "ific": 332,
  "tro": 333,
  "its": 334,
  "ous": 335,
  "ow": 336,
  "through": 337,
  "which": 338,
  "under": 339,
  "tran": 340,
  "ag": 341,
  "ght": 342,
  "ty": 343,
  "im": 344,
  "ave": 345,
  "ally": 346,
  "ond": 347,
  "ear": 348,
  "ater": 349,
  "che": 350,
  "ass": 351,
  "serv": 352,
  "ist": 353,
  "ess": 354,
  "formation": 355,
  "fo": 356,
  "like": 357,
  ").": 358,
  "ates": 359,
  "fer": 360,
  "cre": 361,
  "up": 362,
  "ast": 363,
  "min": 364,
  "int": 365,
  "stem": 366,
  "fin": 367,
  "inter": 368,
  "ub": 369,
  "ev": 370,
  "one": 371,
  "qui": 372,
  "energy": 373,
  "over": 374,
  "ating": 375,
  "spec": 376,
  "electr": 377,
  "prov": 378,
  "out": 379,
  "has": 380,
  "ace": 381,
  "av": 382,
  "wor": 383,
  "incl": 384,
  "bo": 385,
  "Def": 386,
  "ach": 387,
  "ular": 388,
  "Defence": 389,
  "This": 390,
  "ies": 391,
  "ting": 392,
  "pres": 393,
  "ory": 394,
  "into": 395,
  "ice": 396,
  "cr": 397,
  "20": 398,
  "system": 399,
  "struc": 400,
  "ech": 401,
  "cell": 402,
  "cy": 403,
  "cess": 404,
  "ted": 405,
  "fe": 406,
  "abl": 407,
  "sh": 408,
  "ments": 409,
  "cent": 410,
  "chem": 411,
  "Min": 412,
  "ons": 413,
  "ld": 414,
  "uth": 415,
  "ual": 416,
  "cont": 417,
  "where": 418,
  "cial": 419,
  "reg": 420,
  "ord": 421,
  "ack": 422,
  "la": 423,
  "comm": 424,
  "Ministry": 425,
  "not": 426,
  "can": 427,
  "sub": 428,
  "ong": 429,
  "our": 430,
  "loc": 431,
  "trans": 432,
  "tions": 433,
  "Com": 434,
  "ens": 435,
  "do": 436,
  "stand": 437,
  "bi": 438,
  "hy": 439,
  "des": 440,
  "age": 441,
  "this": 442,
  "resp": 443,
  "ision": 444,
  "por": 445,
  "It": 446,
  "pend": 447,
  "med": 448,
  "emp": 449,
  "car": 450,
  "tur": 451,
  "gr": 452,
  "Comm": 453,
  "plic": 454,
  "ility": 455,
  "ble": 456,
  "Indi": 457,
  "eng": 458,
  "ation,": 459,
  "man": 460,
  "et": 461,
  "ase": 462,
  "op": 463,
  "but": 464,
  "Ac": 465,
  "vol": 466,
  "high": 467,
  "ational": 468,
  "proc": 469,
  "ors": 470,
  "Un": 471,
  "ital": 472,
  "ak": 473,
  "lic": 474,
  "ign": 475,
  "gan": 476,
  "ution": 477,
  "ism": 478,
  "val": 479,
  "ins": 480,
  "tal": 481,
  "ob": 482,
  "ind": 483,
  "process": 484,
  "cur": 485,
  "tical": 486,
  "includ": 487,
  "ang": 488,
  "sign": 489,
  "use": 490,
  "tiv": 491,
  "ten": 492,
  "produc": 493,
  "een": 494,
  "cap": 495,
  "Ar": 496,
  "tri": 497,
  "ture": 498,
  "pre": 499,
  "def": 500,
  "De": 501,
  "year": 502,
  "thes": 503,
  "sec": 504,
  "gra": 505,
  "atter": 506,
  "a,": 507,
  "pers": 508,
  "ile": 509,
  "ys": 510,
  "ancial": 511,
  "ree": 512,
  "ou": 513,
  "mon": 514,
  "ish": 515,
  "reaction": 516,
  "peri": 517,
  "Mo": 518,
  "time": 519,
  "mil": 520,
  "mar": 521,
  "light": 522,
  "gro": 523,
  "applic": 524,
  "19": 525,
  "ucle": 526,
  "ox": 527,
  "coun": 528,
  "velo": 529,
  "ases": 530,
  "uthor": 531,
  "ation.": 532,
  "sol": 533,
  "NA": 534,
  "information": 535,
  "uni": 536,
  "we": 537,
  "was": 538,
  "Sec": 539,
  "while": 540,
  "urement": 541,
  "ized": 542,
  "fr": 543,
  "air": 544,
  "specific": 545,
  "pment": 546,
  "ue": 547,
  "tween": 548,
  "such": 549,
  "lar": 550,
  "between": 551,
  "ss": 552,
  "ission": 553,
  "imp": 554,
  "comple": 555,
  "allow": 556,
  "St": 557,
  "00": 558,
  "dec": 559,
  "clo": 560,
  "oc": 561,
  "ide": 562,
  "ffic": 563,
  "ative": 564,
  "ail": 565,
  "Co": 566,
  "Ch": 567,
  "ves": 568,
  "defence": 569,
  "dro": 570,
  "sure": 571,
  "t,": 572,
  "pri": 573,
  "pol": 574,
  "their": 575,
  "than": 576,
  "other": 577,
  "mer": 578,
  "ks": 579,
  "molec": 580,
  "ction": 581,
  "ber": 582,
  "ures": 583,
  "pow": 584,
  "overn": 585,
  "log": 586,
  "king": 587,
  "exp": 588,
  "cri": 589,
  "a.": 590,
  "must": 591,
  "ite": 592,
  "ential": 593,
  "acid": 594,
  "Re": 595,
  "sive": 596,
  "most": 597,
  "including": 598,
  "ature": 599,
  "standing": 600,
  "ject": 601,
  "ters": 602,
  "person": 603,
  "offic": 604,
  "fore": 605,
  "financial": 606,
  "ability": 607,
  "sa": 608,
  "equi": 609,
  "y,": 610,
  "requi": 611,
  "nucle": 612,
  "dat": 613,
  "author": 614,
  "part": 615,
  "mag": 616,
  "af": 617,
  "plan": 618,
  "pr": 619,
  "Pro": 620,
  "requ": 621,
  "enabl": 622,
  "temp": 623,
  "procurement": 624,
  "chemical": 625,
  "water": 626,
  "tim": 627,
  "ties": 628,
  "service": 629,
  "organ": 630,
  "gi": 631,
  "electron": 632,
  "char": 633,
  "bal": 634,
  "ity,": 635,
  "very": 636,
  "have": 637,
  "ents": 638,
  "eld": 639,
  "ari": 640,
  "Con": 641,
  "cal": 642,
  "ris": 643,
  "ound": 644,
  "gal": 645,
  "cor": 646,
  "within": 647,
  "syn": 648,
  "fl": 649,
  "ell": 650,
  "sur": 651,
  "quar": 652,
  "fied": 653,
  "world": 654,
  "uman": 655,
  "signific": 656,
  "ple": 657,
  "os": 658,
  "period": 659,
  "oper": 660,
  "mic": 661,
  "ath": 662,
  "Under": 663,
  "partic": 664,
  "land": 665,
  "ew": 666,
  "they": 667,
  "ru": 668,
  "ho": 669,
  "ext": 670,
  "cer": 671,
  "aterial": 672,
  "vir": 673,
  "structure": 674,
  "sition": 675,
  "mit": 676,
  "get": 677,
  "direc": 678,
  "ving": 679,
  "ude": 680,
  "tra": 681,
  "tech": 682,
  "orb": 683,
  "old": 684,
  "mul": 685,
  "les": 686,
  "depend": 687,
  "cons": 688,
  "bond": 689,
  "bon": 690,
  "bas": 691,
  "uring": 692,
  "power": 693,
  "pt": 694,
  "own": 695,
  "ines": 696,
  "ublic": 697,
  "pos": 698,
  "mental": 699,
  "hydro": 700,
  "ffer": 701,
  "ed,": 702,
  "ven": 703,
  "two": 704,
  "ral": 705,
  "human": 706,
  "verse": 707,
  "uld": 708,
  "rel": 709,
  "itary": 710,
  "ings": 711,
  "fra": 712,
  "An": 713,
  "bio": 714,
  "Offic": 715,
  "tit": 716,
  "temper": 717,
  "nel": 718,
  "echan": 719,
  "cle": 720,
  "any": 721,
  "aining": 722,
  "For": 723,
  "prot": 724,
  "now": 725,
  "may": 726,
  "logy": 727,
  "irst": 728,
  "gener": 729,
  "contr": 730,
  "col": 731,
  "ars": 732,
  "Understanding": 733,
  "you": 734,
  "velopment": 735,
  "sph": 736,
  "pen": 737,
  "off": 738,
  "fund": 739,
  "each": 740,
  "arth": 741,
  "ances": 742,
  "ains": 743,
  "respon": 744,
  "more": 745,
  "div": 746,
  "Earth": 747,
  "when": 748,
  "ency": 749,
  "chan": 750,
  "Section": 751,
  "uro": 752,
  "ser": 753,
  "my": 754,
  "mass": 755,
  "led": 756,
  "ects": 757,
  "disclo": 758,
  "without": 759,
  "ules": 760,
  "provid": 761,
  "material": 762,
  "lement": 763,
  "invol": 764,
  "ics": 765,
  "hip": 766,
  "udit": 767,
  "repres": 768,
  "maint": 769,
  "mechan": 770,
  "fun": 771,
  "fu": 772,
  "cul": 773,
  "proper": 774,
  "ices": 775,
  "ia": 776,
  "####": 777,
  "ross": 778,
  "pot": 779,
  "logical": 780,
  "ca": 781,
  "als": 782,
  "ward": 783,
  "using": 784,
  "phys": 785,
  "public": 786,
  "pay": 787,
  "ort": 788,
  "ing,": 789,
  "chemistry": 790,
  "(1": 791,
  "vel": 792,
  "space": 793,
  "new": 794,
  "metal": 795,
  "mem": 796,
  "govern": 797,
  "field": 798,
  "contin": 799,
  "acter": 800,
  "En": 801,
  "ste": 802,
  "separ": 803,
  "sing": 804,
  "partment": 805,
  "if": 806,
  "differ": 807,
  "cells": 808,
  "carbon": 809,
  "He": 810,
  "Gener": 811,
  "tivity": 812,
  "rele": 813,
  "radi": 814,
  "ler": 815,
  "expl": 816,
  "ane": 817,
  "acce": 818,
  "ax": 819,
  "udget": 820,
  "state": 821,
  "rain": 822,
  "ight": 823,
  "ning": 824,
  "isions": 825,
  "Serv": 826,
  "Indian": 827,
  "General": 828,
  "Command": 829,
  "work": 830,
  "vis": 831,
  "poli": 832,
  "meas": 833,
  "mas": 834,
  "incre": 835,
  "data": 836,
  "ays": 837,
  "y.": 838,
  "sible": 839,
  "pho": 840,
  "onom": 841,
  "non": 842,
  "ization": 843,
  "include": 844,
  "art": 845,
  "Euro": 846,
  "synthes": 847,
  "record": 848,
  "poly": 849,
  "num": 850,
  "level": 851,
  "know": 852,
  "divid": 853,
  "design": 854,
  "complex": 855,
  "change": 856,
  "before": 857,
  "ically": 858,
  "grav": 859,
  "dist": 860,
  "capital": 861,
  "bu": 862,
  "ations.": 863,
  "ablish": 864,
  "tern": 865,
  "termin": 866,
  "sequ": 867,
  "pul": 868,
  "only": 869,
  "ig": 870,
  "gu": 871,
  "fect": 872,
  "equ": 873,
  "e,": 874,
  "dition": 875,
  "ceed": 876,
  "Europe": 877,
  "viron": 878,
  "order": 879,
  "go": 880,
  "establish": 881,
  "CP": 882,
  "your": 883,
  "war": 884,
  "tane": 885,
  "reat": 886,
  "prote": 887,
  "ill": 888,
  "geo": 889,
  "ful": 890,
  "fact": 891,
  "enables": 892,
  "e.": 893,
  "bri": 894,
  "anti": 895,
  "DNA": 896,
  "who": 897,
  "iti": 898,
  "del": 899,
  "contro": 900,
  "been": 901,
  "vent": 902,
  "used": 903,
  "tion.": 904,
  "techno": 905,
  "often": 906,
  "ould": 907,
  "matter": 908,
  "glo": 909,
  "force": 910,
  "ength": 911,
  "ed.": 912,
  "det": 913,
  "bit": 914,
  "authority": 915,
  "aly": 916,
  "adquar": 917,
  "Department": 918,
  "Act": 919,
  "law": 920,
  "electro": 921,
  "conduc": 922,
  "budget": 923,
  "appro": 924,
  "app": 925,
  "antum": 926,
  "also": 927,
  "tion,": 928,
  "these": 929,
  "requir": 930,
  "lim": 931,
  "lig": 932,
  "face": 933,
  "ently": 934,
  "ced": 935,
  "Ex": 936,
  "ustri": 937,
  "tor": 938,
  "ordin": 939,
  "ollow": 940,
  "magne": 941,
  "exemp": 942,
  "avel": 943,
  "RT": 944,
  "uses": 945,
  "tho": 946,
  "spe": 947,
  "sel": 948,
  "require": 949,
  "ministr": 950,
  "matic": 951,
  "life": 952,
  "fy": 953,
  "first": 954,
  "evol": 955,
  "environ": 956,
  "down": 957,
  "compound": 958,
  "cipl": 959,
  "bran": 960,
  "ateg": 961,
  "atur": 962,
  "atom": 963,
  "Commission": 964,
  "Al": 965,
  "yn": 966,
  "three": 967,
  "sci": 968,
  "ref": 969,
  "lead": 970,
  "cir": 971,
  "acceler": 972,
  "second": 973,
  "post": 974,
  "jor": 975,
  "ise": 976,
  "ing.": 977,
  "ger": 978,
  "function": 979,
  "fil": 980,
  "eca": 981,
  "Army": 982,
  "vers": 983,
  "temperature": 984,
  "ry": 985,
  "personnel": 986,
  "pension": 987,
  "liz": 988,
  "liance": 989,
  "ese": 990,
  "curr": 991,
  "comb": 992,
  "ually": 993,
  "sm": 994,
  "political": 995,
  "massive": 996,
  "fric": 997,
  "ft": 998,
  "determin": 999,
  "coll": 1000,
  "att": 1001,
  "appe": 1002,
  "So": 1003,
  "RTI": 1004,
  "MoD": 1005,
  "Comp": 1006,
  "Cent": 1007,
  "10": 1008,
  "san": 1009,
  "resul": 1010,
  "reactions": 1011,
  "put": 1012,
  "grap": 1013,
  "Wh": 1014,
  "Fin": 1015,
  "CI": 1016,
  "ustrial": 1017,
  "tain": 1018,
  "py": 1019,
  "ize": 1020,
  "identi": 1021,
  "flu": 1022,
  "cry": 1023,
  "conf": 1024,
  "back": 1025,
  "administr": 1026,
  "would": 1027,
  "them": 1028,
  "taneous": 1029,
  "row": 1030,
  "ress": 1031,
  "region": 1032,
  "pred": 1033,
  "lies": 1034,
  "issu": 1035,
  "ild": 1036,
  "hydrogen": 1037,
  "gram": 1038,
  "gest": 1039,
  "econom": 1040,
  "contract": 1041,
  "bre": 1042,
  "beca": 1043,
  "add": 1044,
  "across": 1045,
  "Or": 1046,
  "structur": 1047,
  "rece": 1048,
  "ork": 1049,
  "medi": 1050,
  "loy": 1051,
  "fuel": 1052,
  "forces": 1053,
  "ective": 1054,
  "dev": 1055,
  "dri": 1056,
  "dom": 1057,
  "crib": 1058,
  "acts": 1059,
  "avi": 1060,
  "India": 1061,
  "At": 1062,
  "were": 1063,
  "try": 1064,
  "sup": 1065,
  "significance": 1066,
  "regul": 1067,
  "que": 1068,
  "predic": 1069,
  "ot": 1070,
  "nor": 1071,
  "move": 1072,
  "mod": 1073,
  "mal": 1074,
  "individ": 1075,
  "development": 1076,
  "centr": 1077,
  "cean": 1078,
  "call": 1079,
  "being": 1080,
  "These": 1081,
  "IO": 1082,
  "CPIO": 1083,
  "tial": 1084,
  "stant": 1085,
  "shi": 1086,
  "potential": 1087,
  "point": 1088,
  "magnetic": 1089,
  "conver": 1090,
  "conn": 1091,
  "cu": 1092,
  "br": 1093,
  "bl": 1094,
  "ations,": 1095,
  "abs": 1096,
  "au": 1097,
  "Sp": 1098,
  "Ad": 1099,
  "**,": 1100,
  "(1)": 1101,
  "wr": 1102,
  "ved": 1103,
  "unic": 1104,
  "star": 1105,
  "response": 1106,
  "rema": 1107,
  "military": 1108,
  "inc": 1109,
  "group": 1110,
  "global": 1111,
  "follow": 1112,
  "explo": 1113,
  "ences": 1114,
  "arm": 1115,
  "Res": 1116,
  "’s": 1117,
  "xim": 1118,
  "vend": 1119,
  "unit": 1120,
  "required": 1121,
  "reco": 1122,
  "ores": 1123,
  "ire": 1124,
  "ground": 1125,
  "ges": 1126,
  "earch": 1127,
  "cases": 1128,
  "approv": 1129,
  "ann": 1130,
  "active": 1131,
  "**The": 1132,
  "tegr": 1133,
  "surface": 1134,
  "polar": 1135,
  "multi": 1136,
  "libri": 1137,
  "long": 1138,
  "individual": 1139,
  "hist": 1140,
  "gl": 1141,
  "ged": 1142,
  "funda": 1143,
  "fici": 1144,
  "er,": 1145,
  "called": 1146,
  "arch": 1147,
  "ands": 1148,
  "adv": 1149,
  "Po": 1150,
  "Afric": 1151,
  ")**": 1152,
  "travel": 1153,
  "synthesis": 1154,
  "set": 1155,
  "rig": 1156,
  "recei": 1157,
  "prin": 1158,
  "concentr": 1159,
  "ately": 1160,
  "ants": 1161,
  "accoun": 1162,
  "subject": 1163,
  "single": 1164,
  "significant": 1165,
  "ret": 1166,
  "pendit": 1167,
  "occur": 1168,
  "less": 1169,
  "ium": 1170,
  "hile": 1171,
  "gene": 1172,
  "evolution": 1173,
  "equilibri": 1174,
  "every": 1175,
  "ever": 1176,
  "different": 1177,
  "about": 1178,
  "Officer": 1179,
  "CIC": 1180,
  "Bo": 1181,
  "Ap": 1182,
  "urity": 1183,
  "strong": 1184,
  "soci": 1185,
  "sen": 1186,
  "port": 1187,
  "ked": 1188,
  "gas": 1189,
  "expendit": 1190,
  "event": 1191,
  "ering": 1192,
  "control": 1193,
  "cost": 1194,
  "both": 1195,
  "ban": 1196,
  "Central": 1197,
  "18": 1198,
  "1.": 1199,
  "twork": 1200,
  "represent": 1201,
  "path": 1202,
  "membran": 1203,
  "intern": 1204,
  "ered": 1205,
  "disclosure": 1206,
  "based": 1207,
  "acc": 1208,
  "audit": 1209,
  "Par": 1210,
  "Headquar": 1211,
  "vide": 1212,
  "ug": 1213,
  "transp": 1214,
  "thir": 1215,
  "sphere": 1216,
  "small": 1217,
  "rank": 1218,
  "position": 1219,
  "oxy": 1220,
  "officer": 1221,
  "number": 1222,
  "nuclear": 1223,
  "non-": 1224,
  "mis": 1225,
  "known": 1226,
  "fur": 1227,
  "expenditure": 1228,
  "creating": 1229,
  "class": 1230,
  "chang": 1231,
  "chall": 1232,
  "categ": 1233,
  "cat": 1234,
  "Tran": 1235,
  "RNA": 1236,
  "Pl": 1237,
  "Per": 1238,
  "Its": 1239,
  "utr": 1240,
  "tis": 1241,
  "sanction": 1242,
  "reduc": 1243,
  "read": 1244,
  "quantum": 1245,
  "program": 1246,
  "proceed": 1247,
  "prevent": 1248,
  "physical": 1249,
  "pair": 1250,
  "pH": 1251,
  "lood": 1252,
  "line": 1253,
  "lin": 1254,
  "held": 1255,
  "electric": 1256,
  "effici": 1257,
  "du": 1258,
  "compu": 1259,
  "communic": 1260,
  "character": 1261,
  "break": 1262,
  "attern": 1263,
  "asing": 1264,
  "administrative": 1265,
  "/20": 1266,
  "--": 1267,
  "###": 1268,
  "zy": 1269,
  "way": 1270,
  "transfer": 1271,
  "sitive": 1272,
  "rupe": 1273,
  "real": 1274,
  "planet": 1275,
  "prec": 1276,
  "molecular": 1277,
  "ment.": 1278,
  "gency": 1279,
  "chain": 1280,
  "cular": 1281,
  "alth": 1282,
  "ainst": 1283,
  "aff": 1284,
  "acy": 1285,
  "They": 1286,
  "view": 1287,
  "typ": 1288,
  "standard": 1289,
  "simul": 1290,
  "s)": 1291,
  "rupees": 1292,
  "requires": 1293,
  "rap": 1294,
  "provisions": 1295,
  "proced": 1296,
  "nit": 1297,
  "molecules": 1298,
  "moder": 1299,
  "mes": 1300,
  "lay": 1301,
  "imm": 1302,
  "igh": 1303,
  "flow": 1304,
  "ff": 1305,
  "engine": 1306,
  "ene": 1307,
  "docu": 1308,
  "after": 1309,
  "amp": 1310,
  "Qu": 1311,
  "Mil": 1312,
  "Ma": 1313,
  "years": 1314,
  "thous": 1315,
  "super": 1316,
  "oxide": 1317,
  "modern": 1318,
  "moun": 1319,
  "major": 1320,
  "largest": 1321,
  "istic": 1322,
  "involves": 1323,
  "icy": 1324,
  "foreign": 1325,
  "five": 1326,
  "enabling": 1327,
  "emer": 1328,
  "ep": 1329,
  "during": 1330,
  "compliance": 1331,
  "cour": 1332,
  "amic": 1333,
  "against": 1334,
  "Is": 1335,
  "4.": 1336,
  "2.": 1337,
  "universe": 1338,
  "turn": 1339,
  "tric": 1340,
  "sider": 1341,
  "side": 1342,
  "ore": 1343,
  "network": 1344,
  "ness": 1345,
  "motion": 1346,
  "meric": 1347,
  "ments.": 1348,
  "ly.": 1349,
  "ly,": 1350,
  "legal": 1351,
  "initi": 1352,
  "even": 1353,
  "defin": 1354,
  "comes": 1355,
  "centur": 1356,
  "ared": 1357,
  "ans": 1358,
  "achi": 1359,
  "While": 1360,
  "Tri": 1361,
  "Service": 1362,
  "Govern": 1363,
  "Americ": 1364,
  "8(1)": 1365,
  "yl": 1366,
  "uch": 1367,
  "total": 1368,
  "ton": 1369,
  "systems": 1370,
  "speed": 1371,
  "roc": 1372,
  "ric": 1373,
  "oxygen": 1374,
  "operational": 1375,
  "neutr": 1376,
  "ment,": 1377,
  "mechanism": 1378,
  "met": 1379,
  "materials": 1380,
  "mary": 1381,
  "lock": 1382,
  "found": 1383,
  "extend": 1384,
  "constant": 1385,
  "atmo": 1386,
  "aster": 1387,
  "ance,": 1388,
  "alloc": 1389,
  "3.": 1390,
  "ze": 1391,
  "vari": 1392,
  "term": 1393,
  "technology": 1394,
  "reve": 1395,
  "pattern": 1396,
  "medical": 1397,
  "jects": 1398,
  "ip": 1399,
  "heat": 1400,
  "hal": 1401,
  "entit": 1402,
  "eth": 1403,
  "discipl": 1404,
  "direct": 1405,
  "cop": 1406,
  "actions": 1407,
  "Military": 1408,
  "Elec": 1409,
  "Di": 1410,
  "6.": 1411,
  "000": 1412,
  "(like": 1413,
  "tware": 1414,
  "sour": 1415,
  "sof": 1416,
  "she": 1417,
  "rather": 1418,
  "plas": 1419,
  "milli": 1420,
  "maintain": 1421,
  "lid": 1422,
  "jo": 1423,
  "ity.": 1424,
  "iter": 1425,
  "isi": 1426,
  "ever,": 1427,
  "equipment": 1428,
  "ey": 1429,
  "continu": 1430,
  "cas": 1431,
  "because": 1432,
  "bod": 1433,
  "200": 1434,
  "via": 1435,
  "til": 1436,
  "tual": 1437,
  "states": 1438,
  "self": 1439,
  "security": 1440,
  "relations": 1441,
  "pur": 1442,
  "organic": 1443,
  "ories": 1444,
  "meth": 1445,
  "mission": 1446,
  "lor": 1447,
  "ists": 1448,
  "industrial": 1449,
  "inv": 1450,
  "ily": 1451,
  "fail": 1452,
  "fac": 1453,
  "equilibrium": 1454,
  "ele": 1455,
  "day": 1456,
  "cribed": 1457,
  "consider": 1458,
  "cover": 1459,
  "coordin": 1460,
  "calcul": 1461,
  "aves": 1462,
  "application": 1463,
  "allows": 1464,
  "alle": 1465,
  "Mar": 1466,
  "How": 1467,
  "Audit": 1468,
  "8(1)(": 1469,
  "**.": 1470,
  "valent": 1471,
  "vision": 1472,
  "unal": 1473,
  "though": 1474,
  "stat": 1475,
  "solar": 1476,
  "scienti": 1477,
  "safe": 1478,
  "rela": 1479,
  "range": 1480,
  "ption": 1481,
  "net": 1482,
  "near": 1483,
  "model": 1484,
  "ments,": 1485,
  "ller": 1486,
  "leave": 1487,
  "issued": 1488,
  "ick": 1489,
  "ible": 1490,
  "ian": 1491,
  "higher": 1492,
  "hibit": 1493,
  "find": 1494,
  "ference": 1495,
  "exist": 1496,
  "estern": 1497,
  "employ": 1498,
  "electrons": 1499,
  "electrical": 1500,
  "ected": 1501,
  "compounds": 1502,
  "ched": 1503,
  "avail": 1504,
  "Li": 1505,
  "Information": 1506,
  "Government": 1507,
  "CO": 1508,
  "7.": 1509,
  "usti": 1510,
  "unique": 1511,
  "test": 1512,
  "spon": 1513,
  "show": 1514,
  "separate": 1515,
  "som": 1516,
  "reflec": 1517,
  "percent": 1518,
  "officers": 1519,
  "micro": 1520,
  "large": 1521,
  "ket": 1522,
  "justi": 1523,
  "ina": 1524,
  "how": 1525,
  "fundamental": 1526,
  "formed": 1527,
  "entire": 1528,
  "enzy": 1529,
  "doub": 1530,
  "does": 1531,
  "distinc": 1532,
  "due": 1533,
  "atures": 1534,
  "amin": 1535,
  "allowing": 1536,
  "activity": 1537,
  "When": 1538,
  "Sy": 1539,
  "New": 1540,
  "II": 1541,
  "Development": 1542,
  "volution": 1543,
  "vendor": 1544,
  "strength": 1545,
  "rise": 1546,
  "rate": 1547,
  "proteins": 1548,
  "properties": 1549,
  "project": 1550,
  "particular": 1551,
  "pi": 1552,
  "ones": 1553,
  "occurs": 1554,
  "ove": 1555,
  "ner": 1556,
  "multiple": 1557,
  "limit": 1558,
  "le,": 1559,
  "lines": 1560,
  "izing": 1561,
  "ites": 1562,
  "high-": 1563,
  "galax": 1564,
  "free": 1565,
  "ensure": 1566,
  "effect": 1567,
  "develo": 1568,
  "dra": 1569,
  "den": 1570,
  "compon": 1571,
  "code": 1572,
  "biological": 1573,
  "bunal": 1574,
  "ark": 1575,
  "Se": 1576,
  "Nav": 1577,
  "Asi": 1578,
  "5.": 1579,
  "tar": 1580,
  "solid": 1581,
  "same": 1582,
  "resh": 1583,
  "represents": 1584,
  "rapid": 1585,
  "ring": 1586,
  "protein": 1587,
  "perform": 1588,
  "orbital": 1589,
  "ori": 1590,
  "minim": 1591,
  "manage": 1592,
  "mi": 1593,
  "limate": 1594,
  "independ": 1595,
  "immun": 1596,
  "history": 1597,
  "hief": 1598,
  "head": 1599,
  "governed": 1600,
  "g.": 1601,
  "fies": 1602,
  "dig": 1603,
  "deli": 1604,
  "constit": 1605,
  "blood": 1606,
  "bers": 1607,
  "base": 1608,
  "atory": 1609,
  "Med": 1610,
  "However,": 1611,
  "Col": 1612,
  "Chief": 1613,
  "tribut": 1614,
  "then": 1615,
  "social": 1616,
  "services": 1617,
  "selec": 1618,
  "sed": 1619,
  "sal": 1620,
  "s:": 1621,
  "rogen": 1622,
  "right": 1623,
  "respond": 1624,
  "resist": 1625,
  "relationship": 1626,
  "re-": 1627,
  "quid": 1628,
  "production": 1629,
  "processes": 1630,
  "provide": 1631,
  "priv": 1632,
  "pressure": 1633,
  "popul": 1634,
  "oring": 1635,
  "ome": 1636,
  "intel": 1637,
  "indic": 1638,
  "integr": 1639,
  "influ": 1640,
  "illi": 1641,
  "grow": 1642,
  "graphy": 1643,
  "genetic": 1644,
  "essential": 1645,
  "collap": 1646,
  "circular": 1647,
  "ctions": 1648,
  "bs": 1649,
  "assi": 1650,
  "applications": 1651,
  "anal": 1652,
  "account": 1653,
  "ati": 1654,
  "War": 1655,
  "Tribunal": 1656,
  "Ocean": 1657,
  "Ne": 1658,
  "Emp": 1659,
  "Commanding": 1660,
  "Board": 1661,
  "Air": 1662,
  "ysis": 1663,
  "weak": 1664,
  "ush": 1665,
  "truc": 1666,
  "ters,": 1667,
  "station": 1668,
  "software": 1669,
  "see": 1670,
  "provides": 1671,
  "photo": 1672,
  "pass": 1673,
  "moving": 1674,
  "moment": 1675,
  "made": 1676,
  "mand": 1677,
  "just": 1678,
  "hor": 1679,
  "her": 1680,
  "hand": 1681,
  "ensures": 1682,
  "days": 1683,
  "contain": 1684,
  "cataly": 1685,
  "bility": 1686,
  "above": 1687,
  "abor": 1688,
  "abol": 1689,
  "SA": 1690,
  "Organ": 1691,
  "European": 1692,
  "8.": 1693,
  "transition": 1694,
  "stability": 1695,
  "six": 1696,
  "sul": 1697,
  "slow": 1698,
  "sis": 1699,
  "scal": 1700,
  "respective": 1701,
  "revolution": 1702,
  "quisi": 1703,
  "prescribed": 1704,
  "portion": 1705,
  "particles": 1706,
  "natur": 1707,
  "method": 1708,
  "making": 1709,
  "ligi": 1710,
  "lit": 1711,
  "ling": 1712,
  "kine": 1713,
  "includes": 1714,
  "intro": 1715,
  "idence": 1716,
  "gravity": 1717,
  "g.,": 1718,
  "ging": 1719,
  "explains": 1720,
  "economic": 1721,
  "e.g.,": 1722,
  "duce": 1723,
  "domin": 1724,
  "distinct": 1725,
  "dies": 1726,
  "creates": 1727,
  "central": 1728,
  "cannot": 1729,
  "body": 1730,
  "bound": 1731,
  "beh": 1732,
  "bur": 1733,
  "ased": 1734,
  "areas": 1735,
  "around": 1736,
  "approval": 1737,
  "applicable": 1738,
  "addition": 1739,
  "As": 1740,
  "9.": 1741,
  "(e.g.,": 1742,
  "(C": 1743,
  "'t": 1744,
  "whe": 1745,
  "ute": 1746,
  "troller": 1747,
  "tics": 1748,
  "techn": 1749,
  "tak": 1750,
  "t.": 1751,
  "stances": 1752,
  "road": 1753,
  "radiation": 1754,
  "qual": 1755,
  "provided": 1756,
  "primary": 1757,
  "or,": 1758,
  "on,": 1759,
  "observ": 1760,
  "ok": 1761,
  "nature": 1762,
  "many": 1763,
  "leg": 1764,
  "imag": 1765,
  "hic": 1766,
  "ha": 1767,
  "gre": 1768,
  "frame": 1769,
  "four": 1770,
  "fication": 1771,
  "ero": 1772,
  "elements": 1773,
  "da": 1774,
  "cryst": 1775,
  "create": 1776,
  "continent": 1777,
  "come": 1778,
  "civi": 1779,
  "civ": 1780,
  "bacter": 1781,
  "ages": 1782,
  "absorb": 1783,
  "ame": 1784,
  "aim": 1785,
  "adi": 1786,
  "System": 1787,
  "Sun": 1788,
  "Nor": 1789,
  "Man": 1790,
  "La": 1791,
  "0.": 1792,
  "/A": 1793,
  ",000": 1794,
  "**3": 1795,
  "(A": 1796,
  "wid": 1797,
  "visible": 1798,
  "value": 1799,
  "upon": 1800,
  "ule": 1801,
  "typically": 1802,
  "step": 1803,
  "simultaneous": 1804,
  "shap": 1805,
  "review": 1806,
  "ren": 1807,
  "policy": 1808,
  "personal": 1809,
  "ogen": 1810,
  "nitrogen": 1811,
  "neg": 1812,
  "national": 1813,
  "monstr": 1814,
  "mat": 1815,
  "mach": 1816,
  "izes": 1817,
  "introduc": 1818,
  "internal": 1819,
  "gravit": 1820,
  "foc": 1821,
  "established": 1822,
  "er.": 1823,
  "eco": 1824,
  "demonstr": 1825,
  "created": 1826,
  "consist": 1827,
  "construc": 1828,
  "command": 1829,
  "chlor": 1830,
  "ches": 1831,
  "cept": 1832,
  "cra": 1833,
  "bonding": 1834,
  "basis": 1835,
  "brain": 1836,
  "annual": 1837,
  "ance.": 1838,
  "anced": 1839,
  "activ": 1840,
  "ade": 1841,
  "Wor": 1842,
  "South": 1843,
  "Le": 1844,
  "Inter": 1845,
  "IS": 1846,
  "CIC/": 1847,
  "Cour": 1848,
  "Accoun": 1849,
  "25": 1850,
  "viol": 1851,
  "undred": 1852,
  "ustr": 1853,
  "ties,": 1854,
  "there": 1855,
  "suppor": 1856,
  "subsequ": 1857,
  "sts": 1858,
  "some": 1859,
  "scientific": 1860,
  "sw": 1861,
  "rot": 1862,
  "remains": 1863,
  "run": 1864,
  "proton": 1865,
  "product": 1866,
  "produce": 1867,
  "princi": 1868,
  "polymer": 1869,
  "payment": 1870,
  "natural": 1871,
  "local": 1872,
  "liquid": 1873,
  "leading": 1874,
  "isation": 1875,
  "heli": 1876,
  "health": 1877,
  "har": 1878,
  "fif": 1879,
  "frequ": 1880,
  "era": 1881,
  "ence.": 1882,
  "electronic": 1883,
  "eff": 1884,
  "digital": 1885,
  "critical": 1886,
  "country": 1887,
  "charge": 1888,
  "causing": 1889,
  "build": 1890,
  "black": 1891,
  "ation**": 1892,
  "attr": 1893,
  "appeal": 1894,
  "ants,": 1895,
  "alk": 1896,
  "Western": 1897,
  "Research": 1898,
  "Part": 1899,
  "Ind": 1900,
  "Headquarters": 1901,
  "Financial": 1902,
  "Empire": 1903,
  "/A/20": 1904,
  "(S": 1905,
  "ucial": 1906,
  "type": 1907,
  "trib": 1908,
  "trade": 1909,
  "thern": 1910,
  "theory": 1911,
  "thal": 1912,
  "tend": 1913,
  "ta": 1914,
  "sug": 1915,
  "structural": 1916,
  "stor": 1917,
  "stars": 1918,
  "sens": 1919,
  "return": 1920,
  "reti": 1921,
  "ron": 1922,
  "proceedings": 1923,
  "poss": 1924,
  "optim": 1925,
  "oman": 1926,
  "nuclei": 1927,
  "need": 1928,
  "month": 1929,
  "mart": 1930,
  "maxim": 1931,
  "iting": 1932,
  "inary": 1933,
  "ict": 1934,
  "hol": 1935,
  "fying": 1936,
  "frastructure": 1937,
  "fare": 1938,
  "environmental": 1939,
  "efficiency": 1940,
  "ection": 1941,
  "concer": 1942,
  "complete": 1943,
  "cos": 1944,
  "bile": 1945,
  "billi": 1946,
  "bar": 1947,
  "atmosphere": 1948,
  "atell": 1949,
  "acids": 1950,
  "Revolution": 1951,
  "No": 1952,
  "First": 1953,
  "Earth's": 1954,
  "23": 1955,
  "11": 1956,
  "**2": 1957,
  "(g": 1958,
  "why": 1959,
  "valu": 1960,
  "ured": 1961,
  "trig": 1962,
  "thirty": 1963,
  "tre": 1964,
  "submit": 1965,
  "stable": 1966,
  "simp": 1967,
  "sever": 1968,
  "sk": 1969,
  "rug": 1970,
  "ribo": 1971,
  "responsible": 1972,
  "resour": 1973,
  "remain": 1974,
  "recomm": 1975,
  "recommend": 1976,
  "reach": 1977,
  "principle": 1978,
  "membrane": 1979,
  "mechanical": 1980,
  "mess": 1981,
  "lands": 1982,
  "interest": 1983,
  "iner": 1984,
  "immune": 1985,
  "frag": 1986,
  "forms": 1987,
  "explaining": 1988,
  "exhibit": 1989,
  "exchange": 1990,
  "es:": 1991,
  "ensuring": 1992,
  "enge": 1993,
  "double": 1994,
  "directed": 1995,
  "develop": 1996,
  "devices": 1997,
  "detail": 1998,
  "decay": 1999,
  "cyto": 2000,
  "crucial": 2001,
  "could": 2002,
  "cip": 2003,
  "becomes": 2004,
  "ators": 2005,
  "ator": 2006,
  "ato": 2007,
  "ates,": 2008,
  "ash": 2009,
  "aring": 2010,
  "ansion": 2011,
  "ank": 2012,
  "World": 2013,
  "Court": 2014,
  "Cl": 2015,
  "CE": 2016,
  "(D": 2017,
  "ynamic": 2018,
  "world's": 2019,
  "wall": 2020,
  "vast": 2021,
  "ufact": 2022,
  "track": 2023,
  "top": 2024,
  "thetic": 2025,
  "thing": 2026,
  "table": 2027,
  "serve": 2028,
  "result": 2029,
  "regular": 2030,
  "play": 2031,
  "oxid": 2032,
  "orders": 2033,
  "orig": 2034,
  "objects": 2035,
  "measures": 2036,
  "main": 2037,
  "lip": 2038,
  "ited": 2039,
  "iron": 2040,
  "instruc": 2041,
  "infrastructure": 2042,
  "gether": 2043,
  "exceed": 2044,
  "eventually": 2045,
  "equal": 2046,
  "emen": 2047,
  "ety": 2048,
  "directly": 2049,
  "detect": 2050,
  "concern": 2051,
  "condition": 2052,
  "compe": 2053,
  "cheme": 2054,
  "climate": 2055,
  "ben": 2056,
  "aving": 2057,
  "approach": 2058,
  "analysis": 2059,
  "ally,": 2060,
  "advance": 2061,
  "address": 2062,
  "ai": 2063,
  "TP": 2064,
  "Staff": 2065,
  "Space": 2066,
  "Reg": 2067,
  "Officers": 2068,
  "Force": 2069,
  "China": 2070,
  "Che": 2071,
  "Bi": 2072,
  "-off": 2073,
  "—the": 2074,
  "trop": 2075,
  "tissu": 2076,
  "tiliz": 2077,
  "ties.": 2078,
  "spontaneous": 2079,
  "spher": 2080,
  "short": 2081,
  "suc": 2082,
  "research": 2083,
  "repor": 2084,
  "reas": 2085,
  "quisition": 2086,
  "possess": 2087,
  "plat": 2088,
  "open": 2089,
  "oblig": 2090,
  "og": 2091,
  "ode": 2092,
  "mediate": 2093,
  "ming": 2094,
  "lia": 2095,
  "laun": 2096,
  "labor": 2097,
  "kinetic": 2098,
  "key": 2099,
  "joint": 2100,
  "jud": 2101,
  "hundred": 2102,
  "hard": 2103,
  "grad": 2104,
  "fields": 2105,
  "fam": 2106,
  "fa": 2107,
  "expansion": 2108,
  "experi": 2109,
  "es**": 2110,
  "ers,": 2111,
  "ension": 2112,
  "element": 2113,
  "ditions": 2114,
  "drug": 2115,
  "dr": 2116,
  "d-": 2117,
  "cycle": 2118,
  "comput": 2119,
  "combin": 2120,
  "commod": 2121,
  "collapse": 2122,
  "classi": 2123,
  "civil": 2124,
  "changes": 2125,
  "challenge": 2126,
  "certi": 2127,
  "ck": 2128,
  "cing": 2129,
  "available": 2130,
  "atomic": 2131,
  "area": 2132,
  "an,": 2133,
  "abi": 2134,
  "amoun": 2135,
  "US": 2136,
  "Secret": 2137,
  "Roman": 2138,
  "RD": 2139,
  "Forces": 2140,
  "Fi": 2141,
  "Chem": 2142,
  "17": 2143,
  "15": 2144,
  "ying": 2145,
  "works": 2146,
  "vant": 2147,
  "ump": 2148,
  "tural": 2149,
  "tribution": 2150,
  "tool": 2151,
  "systems.": 2152,
  "system.": 2153,
  "sulfur": 2154,
  "stage": 2155,
  "special": 2156,
  "shift": 2157,
  "requiring": 2158,
  "release": 2159,
  "radio": 2160,
  "produces": 2161,
  "place": 2162,
  "particularly": 2163,
  "origin": 2164,
  "offer": 2165,
  "ocean": 2166,
  "molecul": 2167,
  "lex": 2168,
  "let": 2169,
  "jug": 2170,
  "ions": 2171,
  "impact": 2172,
  "icemen": 2173,
  "hot": 2174,
  "hold": 2175,
  "guide": 2176,
  "gravitational": 2177,
  "eval": 2178,
  "ests": 2179,
  "ergy": 2180,
  "document": 2181,
  "dise": 2182,
  "datab": 2183,
  "date": 2184,
  "crores": 2185,
  "containing": 2186,
  "computers": 2187,
  "compos": 2188,
  "challeng": 2189,
  "behavi": 2190,
  "analy": 2191,
  "allocation": 2192,
  "along": 2193,
  "adap": 2194,
  "To": 2195,
  "RDO": 2196,
  "Pay": 2197,
  "Defence,": 2198,
  "Des": 2199,
  "Cant": 2200,
  "Africa": 2201,
  "Act,": 2202,
  "Author": 2203,
  "195": 2204,
  "14": 2205,
  "---": 2206,
  "ximately": 2207,
  "wind": 2208,
  "will": 2209,
  "ware": 2210,
  "valid": 2211,
  "tox": 2212,
  "tiz": 2213,
  "treat": 2214,
  "speci": 2215,
  "spacetime": 2216,
  "spin": 2217,
  "spect": 2218,
  "source": 2219,
  "shif": 2220,
  "scr": 2221,
  "satell": 2222,
  "reveal": 2223,
  "relevant": 2224,
  "rati": 2225,
  "rul": 2226,
  "rit": 2227,
  "rin": 2228,
  "quanti": 2229,
  "private": 2230,
  "principl": 2231,
  "powers": 2232,
  "plants": 2233,
  "pell": 2234,
  "official": 2235,
  "oT": 2236,
  "normal": 2237,
  "mobile": 2238,
  "metals": 2239,
  "mus": 2240,
  "mid": 2241,
  "les,": 2242,
  "kary": 2243,
  "itself": 2244,
  "ised": 2245,
  "involving": 2246,
  "ities": 2247,
  "groups": 2248,
  "fusion": 2249,
  "fraction": 2250,
  "forming": 2251,
  "fix": 2252,
  "examp": 2253,
  "ers.": 2254,
  "ence,": 2255,
  "ellar": 2256,
  "diverse": 2257,
  "decision": 2258,
  "ded": 2259,
  "current": 2260,
  "court": 2261,
  "correc": 2262,
  "coordination": 2263,
  "computer": 2264,
  "competi": 2265,
  "commit": 2266,
  "cho": 2267,
  "certain": 2268,
  "cup": 2269,
  "ctic": 2270,
  "bey": 2271,
  "block": 2272,
  "bind": 2273,
  "angu": 2274,
  "amics": 2275,
  "allowed": 2276,
  "We": 2277,
  "Stand": 2278,
  "Quantum": 2279,
  "Pol": 2280,
  "If": 2281,
  "East": 2282,
  "Cell": 2283,
  "Car": 2284,
  "Asia": 2285,
  ",\"": 2286,
  "(H": 2287,
  "whether": 2288,
  "ways": 2289,
  "wave": 2290,
  "wast": 2291,
  "ula": 2292,
  "tries": 2293,
  "together": 2294,
  "tice": 2295,
  "those": 2296,
  "storage": 2297,
  "ster": 2298,
  "species": 2299,
  "sin": 2300,
  "ship": 2301,
  "records": 2302,
  "reme": 2303,
  "rates": 2304,
  "ques": 2305,
  "producing": 2306,
  "principles": 2307,
  "physics": 2308,
  "phy": 2309,
  "push": 2310,
  "orbit": 2311,
  "otic": 2312,
  "negative": 2313,
  "mechanisms": 2314,
  "meters": 2315,
  "martial": 2316,
  "much": 2317,
  "lled": 2318,
  "lak": 2319,
  "jur": 2320,
  "instructions": 2321,
  "increasing": 2322,
  "import": 2323,
  "implement": 2324,
  "headquar": 2325,
  "half": 2326,
  "had": 2327,
  "funds": 2328,
  "framework": 2329,
  "ffair": 2330,
  "fall": 2331,
  "equivalent": 2332,
  "energy,": 2333,
  "ense": 2334,
  "enh": 2335,
  "electromagnetic": 2336,
  "eve": 2337,
  "disciplinary": 2338,
  "dioxide": 2339,
  "determines": 2340,
  "don": 2341,
  "dark": 2342,
  "continuous": 2343,
  "common": 2344,
  "chrom": 2345,
  "carry": 2346,
  "cross": 2347,
  "bonds": 2348,
  "beyond": 2349,
  "behavior": 2350,
  "below": 2351,
  "broad": 2352,
  "auto": 2353,
  "aries": 2354,
  "approximately": 2355,
  "access": 2356,
  "Nucle": 2357,
  "India,": 2358,
  "Industrial": 2359,
  "His": 2360,
  "Gree": 2361,
  "Direc": 2362,
  "DRDO": 2363,
  "Colon": 2364,
  "By": 2365,
  "Armed": 2366,
  "Affair": 2367,
  "21": 2368,
  "**4": 2369,
  "**1": 2370,
  "(M": 2371,
  "(E": 2372,
  "ural": 2373,
  "ult": 2374,
  "transpar": 2375,
  "toward": 2376,
  "tically": 2377,
  "thousands": 2378,
  "thousand": 2379,
  "technolog": 2380,
  "subsequent": 2381,
  "sust": 2382,
  "solub": 2383,
  "south": 2384,
  "serving": 2385,
  "sensitive": 2386,
  "s**": 2387,
  "round": 2388,
  "resources": 2389,
  "rest": 2390,
  "representing": 2391,
  "relates": 2392,
  "regard": 2393,
  "recogn": 2394,
  "re-employ": 2395,
  "reactivity": 2396,
  "rules": 2397,
  "ror": 2398,
  "providing": 2399,
  "prior": 2400,
  "phosph": 2401,
  "phase": 2402,
  "peop": 2403,
  "pairs": 2404,
  "oxidation": 2405,
  "occup": 2406,
  "mous": 2407,
  "millions": 2408,
  "manufact": 2409,
  "maintaining": 2410,
  "ms": 2411,
  "lipid": 2412,
  "limited": 2413,
  "le.": 2414,
  "langu": 2415,
  "lack": 2416,
  "judic": 2417,
  "ister": 2418,
  "isol": 2419,
  "intellec": 2420,
  "ine,": 2421,
  "ification": 2422,
  "ilo": 2423,
  "ia,": 2424,
  "formal": 2425,
  "forward": 2426,
  "fig": 2427,
  "faster": 2428,
  "exempt": 2429,
  "ern": 2430,
  "entitlement": 2431,
  "emergency": 2432,
  "elfare": 2433,
  "eu": 2434,
  "draw": 2435,
  "deep": 2436,
  "dens": 2437,
  "contracts": 2438,
  "contains": 2439,
  "conflic": 2440,
  "conditions": 2441,
  "colon": 2442,
  "cool": 2443,
  "clear": 2444,
  "cies": 2445,
  "child": 2446,
  "century": 2447,
  "categories": 2448,
  "bacteria": 2449,
  "ante": 2450,
  "antic": 2451,
  "affect": 2452,
  "achieve": 2453,
  "achiev": 2454,
  "Regul": 2455,
  "Parlia": 2456,
  "Pers": 2457,
  "On": 2458,
  "Major": 2459,
  "Met": 2460,
  "IoT": 2461,
  "Ger": 2462,
  "Energy": 2463,
  "Director": 2464,
  "Cy": 2465,
  "Cor": 2466,
  "CR": 2467,
  "7,": 2468,
  "**7": 2469,
  "**6": 2470,
  "**5": 2471,
  "write": 2472,
  "writ": 2473,
  "utions": 2474,
  "titution": 2475,
  "times": 2476,
  "timate": 2477,
  "thermod": 2478,
  "tu": 2479,
  "spectro": 2480,
  "spread": 2481,
  "serves": 2482,
  "server": 2483,
  "smart": 2484,
  "sco": 2485,
  "rigid": 2486,
  "report": 2487,
  "putation": 2488,
  "processing": 2489,
  "procedure": 2490,
  "promo": 2491,
  "prediction": 2492,
  "pti": 2493,
  "ors.": 2494,
  "monit": 2495,
  "miner": 2496,
  "matically": 2497,
  "mir": 2498,
  "might": 2499,
  "len": 2500,
  "lation": 2501,
  "interactions": 2502,
  "intellectual": 2503,
  "indi": 2504,
  "ices,": 2505,
  "ior": 2506,
  "heavi": 2507,
  "generally": 2508,
  "formation.": 2509,
  "findings": 2510,
  "fav": 2511,
  "est,": 2512,
  "enthal": 2513,
  "ets": 2514,
  "device": 2515,
  "correspond": 2516,
  "construction": 2517,
  "component": 2518,
  "commodation": 2519,
  "commer": 2520,
  "classical": 2521,
  "became": 2522,
  "attack": 2523,
  "ates.": 2524,
  "assess": 2525,
  "arante": 2526,
  "appropri": 2527,
  "acting": 2528,
  "Servicemen": 2529,
  "Secretary": 2530,
  "Sub": 2531,
  "Ro": 2532,
  "Poly": 2533,
  "North": 2534,
  "Integr": 2535,
  "Gu": 2536,
  "Great": 2537,
  "Finance": 2538,
  "Ex-": 2539,
  "Ex-Servicemen": 2540,
  "Electro": 2541,
  "Dis": 2542,
  "Conf": 2543,
  "BCE": 2544,
  "Adv": 2545,
  "Accounts": 2546,
  "16": 2547,
  "12": 2548,
  "—a": 2549,
  "zone": 2550,
  "y-": 2551,
  "water,": 2552,
  "waste": 2553,
  "waves": 2554,
  "valence": 2555,
  "vac": 2556,
  "uture": 2557,
  "understanding": 2558,
  "undergo": 2559,
  "until": 2560,
  "utri": 2561,
  "temperatures": 2562,
  "structures": 2563,
  "stru": 2564,
  "sta": 2565,
  "spheric": 2566,
  "specifically": 2567,
  "signal": 2568,
  "simil": 2569,
  "similar": 2570,
  "ses": 2571,
  "send": 2572,
  "reveals": 2573,
  "requirements": 2574,
  "recovery": 2575,
  "ray": 2576,
  "rup": 2577,
  "rac": 2578,
  "prove": 2579,
  "propos": 2580,
  "present": 2581,
  "powerful": 2582,
  "pellate": 2583,
  "patterns": 2584,
  "plo": 2585,
  "outer": 2586,
  "once": 2587,
  "object": 2588,
  "oth": 2589,
  "ological": 2590,
  "oid": 2591,
  "nucleus": 2592,
  "north": 2593,
  "next": 2594,
  "movement": 2595,
  "momentum": 2596,
  "mentary": 2597,
  "mentally": 2598,
  "measure": 2599,
  "metry": 2600,
  "management": 2601,
  "layers": 2602,
  "last": 2603,
  "lantic": 2604,
  "kilo": 2605,
  "ished": 2606,
  "introduced": 2607,
  "international": 2608,
  "iny": 2609,
  "ilit": 2610,
  "idential": 2611,
  "humans": 2612,
  "helium": 2613,
  "hab": 2614,
  "food": 2615,
  "far": 2616,
  "extreme": 2617,
  "exemption": 2618,
  "everything": 2619,
  "energy.": 2620,
  "ensive": 2621,
  "ecess": 2622,
  "depending": 2623,
  "dut": 2624,
  "dest": 2625,
  "dated": 2626,
  "cryp": 2627,
  "convert": 2628,
  "considered": 2629,
  "consists": 2630,
  "concentration": 2631,
  "consu": 2632,
  "coming": 2633,
  "core": 2634,
  "carri": 2635,
  "calculation": 2636,
  "board": 2637,
  "become": 2638,
  "balance": 2639,
  "armed": 2640,
  "approved": 2641,
  "another": 2642,
  "accur": 2643,
  "ability.": 2644,
  "S)": 2645,
  "Ri": 2646,
  "MoD/A/20": 2647,
  "Mars": 2648,
  "High": 2649,
  "Controller": 2650,
  "CIC/MoD/A/20": 2651,
  "Bank": 2652,
  "Authority": 2653,
  "Atlantic": 2654,
  "Appellate": 2655,
  "Age": 2656,
  "2020": 2657,
  ".\"": 2658,
  "(the": 2659,
  "(T": 2660,
  "ΔH": 2661,
  "years,": 2662,
  "written": 2663,
  "what": 2664,
  "vendors": 2665,
  "tropical": 2666,
  "trigger": 2667,
  "transport": 2668,
  "to-": 2669,
  "thermal": 2670,
  "theast": 2671,
  "technical": 2672,
  "target": 2673,
  "tex": 2674,
  "synthetic": 2675,
  "stret": 2676,
  "split": 2677,
  "solubility": 2678,
  "size": 2679,
  "sequence": 2680,
  "separates": 2681,
  "scrut": 2682,
  "rocket": 2683,
  "rock": 2684,
  "ropy": 2685,
  "resistance": 2686,
  "regions": 2687,
  "ranch": 2688,
  "rad": 2689,
  "proving": 2690,
  "promotion": 2691,
  "prog": 2692,
  "positive": 2693,
  "ps": 2694,
  "onal": 2695,
  "omen": 2696,
  "numbers": 2697,
  "neutron": 2698,
  "nutri": 2699,
  "nan": 2700,
  "metabol": 2701,
  "matters": 2702,
  "manag": 2703,
  "maintained": 2704,
  "make": 2705,
  "mers": 2706,
  "mb": 2707,
  "ligence": 2708,
  "lian": 2709,
  "larger": 2710,
  "language": 2711,
  "lun": 2712,
  "length": 2713,
  "kes": 2714,
  "ising": 2715,
  "increases": 2716,
  "ints": 2717,
  "instru": 2718,
  "ides": 2719,
  "iden": 2720,
  "ik": 2721,
  "ies.": 2722,
  "host": 2723,
  "heav": 2724,
  "growth": 2725,
  "good": 2726,
  "ghts": 2727,
  "genous": 2728,
  "functional": 2729,
  "functions": 2730,
  "formation,": 2731,
  "fluid": 2732,
  "final": 2733,
  "fast": 2734,
  "enzymes": 2735,
  "entially": 2736,
  "entropy": 2737,
  "emphas": 2738,
  "diz": 2739,
  "determined": 2740,
  "detailed": 2741,
  "describ": 2742,
  "database": 2743,
  "concept": 2744,
  "cold": 2745,
  "catalyst": 2746,
  "cis": 2747,
  "building": 2748,
  "breaking": 2749,
  "brid": 2750,
  "biology": 2751,
  "beg": 2752,
  "bor": 2753,
  "bone": 2754,
  "batter": 2755,
  "arily": 2756,
  "arrange": 2757,
  "applications.": 2758,
  "anted": 2759,
  "among": 2760,
  "ammon": 2761,
  "away": 2762,
  "ae": 2763,
  "a)": 2764,
  "Unlike": 2765,
  "Transp": 2766,
  "Ther": 2767,
  "Standard": 2768,
  "Sa": 2769,
  "Navy": 2770,
  "Moon": 2771,
  "Hy": 2772,
  "Egy": 2773,
  "Commit": 2774,
  "Colonel": 2775,
  "Big": 2776,
  "**M": 2777,
  "(P": 2778,
  "years.": 2779,
  "world.": 2780,
  "well": 2781,
  "vention": 2782,
  "veloc": 2783,
  "various": 2784,
  "urch": 2785,
  "uniform": 2786,
  "unt": 2787,
  "udge": 2788,
  "us,": 2789,
  "tocol": 2790,
  "throughout": 2791,
  "ternal": 2792,
  "technologies": 2793,
  "structured": 2794,
  "steam": 2795,
  "stu": 2796,
  "stellar": 2797,
  "simultaneously": 2798,
  "silic": 2799,
  "science": 2800,
  "safety": 2801,
  "satis": 2802,
  "scop": 2803,
  "risk": 2804,
  "ribosom": 2805,
  "river": 2806,
  "resulting": 2807,
  "respons": 2808,
  "relative": 2809,
  "regulations": 2810,
  "reactions,": 2811,
  "religi": 2812,
  "religious": 2813,
  "react": 2814,
  "processes,": 2815,
  "proportion": 2816,
  "prac": 2817,
  "possible": 2818,
  "phen": 2819,
  "performance": 2820,
  "pathogen": 2821,
  "particle": 2822,
  "parti": 2823,
  "organism": 2824,
  "onment": 2825,
  "onic": 2826,
  "oil": 2827,
  "nov": 2828,
  "necess": 2829,
  "nations": 2830,
  "nation": 2831,
  "monthly": 2832,
  "modi": 2833,
  "mix": 2834,
  "maximum": 2835,
  "lysis": 2836,
  "lower": 2837,
  "located": 2838,
  "limits": 2839,
  "kets": 2840,
  "item": 2841,
  "independent": 2842,
  "improve": 2843,
  "holes": 2844,
  "headquarters": 2845,
  "hel": 2846,
  "gor": 2847,
  "gly": 2848,
  "fundamentally": 2849,
  "following": 2850,
  "features": 2851,
  "future": 2852,
  "fold": 2853,
  "exploit": 2854,
  "expand": 2855,
  "exce": 2856,
  "exam": 2857,
  "evalu": 2858,
  "evidence": 2859,
  "erve": 2860,
  "ert": 2861,
  "erial": 2862,
  "enzyme": 2863,
  "engineering": 2864,
  "ended": 2865,
  "empire": 2866,
  "eles": 2867,
  "driven": 2868,
  "drawn": 2869,
  "disclos": 2870,
  "dissoci": 2871,
  "designed": 2872,
  "defined": 2873,
  "decre": 2874,
  "deputation": 2875,
  "death": 2876,
  "dle": 2877,
  "connected": 2878,
  "confir": 2879,
  "conduct": 2880,
  "conjug": 2881,
  "components": 2882,
  "compo": 2883,
  "communication": 2884,
  "cient": 2885,
  "ching": 2886,
  "cath": 2887,
  "cant": 2888,
  "buil": 2889,
  "billion": 2890,
  "barri": 2891,
  "bank": 2892,
  "bases": 2893,
  "attach": 2894,
  "atoms": 2895,
  "atin": 2896,
  "appoint": 2897,
  "ali": 2898,
  "accord": 2899,
  "astr": 2900,
  "Trans": 2901,
  "Spec": 2902,
  "Sou": 2903,
  "Persi": 2904,
  "Public": 2905,
  "Pow": 2906,
  "Pac": 2907,
  "Law": 2908,
  "King": 2909,
  "Isl": 2910,
  "Headquarters,": 2911,
  "H₂": 2912,
  "Gene": 2913,
  "Bio": 2914,
  "Bu": 2915,
  "Acquisition": 2916,
  "90": 2917,
  "30": 2918,
  "202": 2919,
  "13": 2920,
  "(L": 2921,
  "(G": 2922,
  "\"—": 2923,
  "ΔG": 2924,
  "write-off": 2925,
  "vacu": 2926,
  "vit": 2927,
  "uted": 2928,
  "ubble": 2929,
  "turning": 2930,
  "trial": 2931,
  "training": 2932,
  "trac": 2933,
  "time.": 2934,
  "threat": 2935,
  "taken": 2936,
  "supp": 2937,
  "sources": 2938,
  "society": 2939,
  "significantly": 2940,
  "sequences": 2941,
  "selection": 2942,
  "sun": 2943,
  "sti": 2944,
  "scre": 2945,
  "sc": 2946,
  "s),": 2947,
  "role": 2948,
  "retired": 2949,
  "resol": 2950,
  "releasing": 2951,
  "reven": 2952,
  "reference": 2953,
  "rors": 2954,
  "rich": 2955,
  "quir": 2956,
  "provision": 2957,
  "products": 2958,
  "preventing": 2959,
  "population": 2960,
  "plac": 2961,
  "particip": 2962,
  "ping": 2963,
  "phi": 2964,
  "pat": 2965,
  "ouse": 2966,
  "oppos": 2967,
  "ongo": 2968,
  "nes": 2969,
  "n't": 2970,
  "muscle": 2971,
  "mountain": 2972,
  "minimum": 2973,
  "million": 2974,
  "memory": 2975,
  "mel": 2976,
  "mean": 2977,
  "mainten": 2978,
  "mage": 2979,
  "loss": 2980,
  "lear": 2981,
  "lakh": 2982,
  "list": 2983,
  "lap": 2984,
  "justice": 2985,
  "judicial": 2986,
  "jun": 2987,
  "izon": 2988,
  "istor": 2989,
  "ism.": 2990,
  "invo": 2991,
  "internet": 2992,
  "ing**": 2993,
  "industr": 2994,
  "incredi": 2995,
  "ive": 2996,
  "heavy": 2997,
  "harm": 2998,
  "government": 2999,
  "gorith": 3000,
  "general": 3001,
  "gap": 3002,
  "further": 3003,
  "focus": 3004,
  "fifty": 3005,
  "family": 3006,
  "failure": 3007,
  "facilit": 3008,
  "extends": 3009,
  "entitled": 3010,
  "encing": 3011,
  "effective": 3012,
  "ections": 3013,
  "eight": 3014,
  "documents": 3015,
  "distribution": 3016,
  "divers": 3017,
  "depends": 3018,
  "dex": 3019,
  "cycl": 3020,
  "cultural": 3021,
  "countries": 3022,
  "controlled": 3023,
  "consolid": 3024,
  "compass": 3025,
  "collec": 3026,
  "claim": 3027,
  "civiliz": 3028,
  "case": 3029,
  "built": 3030,
  "bohy": 3031,
  "benef": 3032,
  "began": 3033,
  "bly": 3034,
  "ball": 3035,
  "amm": 3036,
  "allic": 3037,
  "acro": 3038,
  "award": 3039,
  "West": 3040,
  "Vir": 3041,
  "Su": 3042,
  "Struc": 3043,
  "Sh": 3044,
  "Red": 3045,
  "Proper": 3046,
  "Pacific": 3047,
  "Nuclear": 3048,
  "National": 3049,
  "Mon": 3050,
  "JCO": 3051,
  "Greek": 3052,
  "Fr": 3053,
  "Europe.": 3054,
  "Each": 3055,
  "Directorate": 3056,
  "Committe": 3057,
  "Coun": 3058,
  "Chemical": 3059,
  "Brig": 3060,
  "Branch": 3061,
  "Arm": 3062,
  "American": 3063,
  "Advis": 3064,
  "/D": 3065,
  "-to-": 3066,
  "**A": 3067,
  "(\"": 3068,
  "ΔS": 3069,
  "°C": 3070,
  "zero": 3071,
  "ynamics": 3072,
  "weap": 3073,
  "wavel": 3074,
  "wavelength": 3075,
  "vehic": 3076,
  "vs.": 3077,
  "users": 3078,
  "twent": 3079,
  "twenty-": 3080,
  "treated": 3081,
  "transmit": 3082,
  "transaction": 3083,
  "toxic": 3084,
  "titude": 3085,
  "thermodynamic": 3086,
  "tension": 3087,
  "temperature,": 3088,
  "systems,": 3089,
  "sustain": 3090,
  "surround": 3091,
  "subst": 3092,
  "subs": 3093,
  "sum": 3094,
  "studies": 3095,
  "strateg": 3096,
  "strand": 3097,
  "spectr": 3098,
  "sough": 3099,
  "sou": 3100,
  "soil": 3101,
  "siz": 3102,
  "sheet": 3103,
  "senior": 3104,
  "sea": 3105,
  "sanctioned": 3106,
  "scheme": 3107,
  "rout": 3108,
  "reserv": 3109,
  "renew": 3110,
  "recy": 3111,
  "reason": 3112,
  "reactions.": 3113,
  "rein": 3114,
  "rane": 3115,
  "rand": 3116,
  "quality": 3117,
  "purch": 3118,
  "property": 3119,
  "proceeding": 3120,
  "precise": 3121,
  "points": 3122,
  "paralle": 3123,
  "ploy": 3124,
  "ough": 3125,
  "mineral": 3126,
  "medic": 3127,
  "marked": 3128,
  "mut": 3129,
  "mor": 3130,
  "mRNA": 3131,
  "loso": 3132,
  "lobal": 3133,
  "lith": 3134,
  "legacy": 3135,
  "ledge": 3136,
  "leum": 3137,
  "laid": 3138,
  "late": 3139,
  "las": 3140,
  "ity**": 3141,
  "it.": 3142,
  "iso": 3143,
  "isis": 3144,
  "irregular": 3145,
  "indicating": 3146,
  "inste": 3147,
  "inst": 3148,
  "index": 3149,
  "iling": 3150,
  "hydrox": 3151,
  "highlight": 3152,
  "his": 3153,
  "glu": 3154,
  "galaxy": 3155,
  "fully": 3156,
  "fragment": 3157,
  "forest": 3158,
  "followed": 3159,
  "file": 3160,
  "estim": 3161,
  "equation": 3162,
  "enable": 3163,
  "empow": 3164,
  "els": 3165,
  "efficient": 3166,
  "eful": 3167,
  "eli": 3168,
  "duction": 3169,
  "disease": 3170,
  "discipline": 3171,
  "dium": 3172,
  "diplo": 3173,
  "dim": 3174,
  "delivery": 3175,
  "decisions": 3176,
  "crystal": 3177,
  "crisis": 3178,
  "covered": 3179,
  "cosmic": 3180,
  "connect": 3181,
  "conflict": 3182,
  "close": 3183,
  "citiz": 3184,
  "channel": 3185,
  "cession": 3186,
  "cellular": 3187,
  "causes": 3188,
  "authorised": 3189,
  "attract": 3190,
  "arise": 3191,
  "applicant": 3192,
  "angular": 3193,
  "additional": 3194,
  "ather": 3195,
  "Water": 3196,
  "Tech": 3197,
  "Station": 3198,
  "State": 3199,
  "Services": 3200,
  "Second": 3201,
  "Str": 3202,
  "River": 3203,
  "Rec": 3204,
  "Radi": 3205,
  "Prin": 3206,
  "NASA": 3207,
  "Make": 3208,
  "Mod": 3209,
  "IP": 3210,
  "Gro": 3211,
  "Global": 3212,
  "Gi": 3213,
  "Eng": 3214,
  "Compliance": 3215,
  "Applic": 3216,
  "All": 3217,
  "80": 3218,
  "2,": 3219,
  "194": 3220,
  "-year": 3221,
  "(a": 3222,
  "yet": 3223,
  "world,": 3224,
  "warf": 3225,
  "wit": 3226,
  "vessel": 3227,
  "velocity": 3228,
  "vacuum": 3229,
  "usually": 3230,
  "ussi": 3231,
  "user": 3232,
  "usal": 3233,
  "umn": 3234,
  "umin": 3235,
  "ubl": 3236,
  "utiliz": 3237,
  "usion": 3238,
  "uce": 3239,
  "tures": 3240,
  "troleum": 3241,
  "tradition": 3242,
  "too": 3243,
  "tivity,": 3244,
  "tian": 3245,
  "third": 3246,
  "teen": 3247,
  "tarctic": 3248,
  "tons": 3249,
  "system,": 3250,
  "sugar": 3251,
  "submitted": 3252,
  "strategic": 3253,
  "stationary": 3254,
  "stud": 3255,
  "sto": 3256,
  "specialized": 3257,
  "spac": 3258,
  "solution": 3259,
  "sodium": 3260,
  "since": 3261,
  "sil": 3262,
  "service,": 3263,
  "series": 3264,
  "sensors": 3265,
  "seg": 3266,
  "satellites": 3267,
  "smo": 3268,
  "sav": 3269,
  "rising": 3270,
  "ricul": 3271,
  "rival": 3272,
  "revenue": 3273,
  "results": 3274,
  "reduction": 3275,
  "reduce": 3276,
  "receipt": 3277,
  "replic": 3278,
  "relies": 3279,
  "ranean": 3280,
  "ranging": 3281,
  "raw": 3282,
  "quarter": 3283,
  "quarks": 3284,
  "pulsion": 3285,
  "preced": 3286,
  "print": 3287,
  "phenomen": 3288,
  "periodic": 3289,
  "people": 3290,
  "penal": 3291,
  "payments": 3292,
  "publ": 3293,
  "pack": 3294,
  "othermic": 3295,
  "oration": 3296,
  "onduc": 3297,
  "nucleo": 3298,
  "never": 3299,
  "neur": 3300,
  "nar": 3301,
  "nam": 3302,
  "methods": 3303,
  "measurement": 3304,
  "meaning": 3305,
  "metric": 3306,
  "makes": 3307,
  "mol": 3308,
  "m/": 3309,
  "long-": 3310,
  "loop": 3311,
  "light,": 3312,
  "learning": 3313,
  "landscap": 3314,
  "it,": 3315,
  "interference": 3316,
  "indigenous": 3317,
  "increase": 3318,
  "identify": 3319,
  "highly": 3320,
  "heart": 3321,
  "guidelines": 3322,
  "glass": 3323,
  "galaxies": 3324,
  "gs": 3325,
  "forces,": 3326,
  "flows": 3327,
  "fresh": 3328,
  "fat": 3329,
  "exceeding": 3330,
  "expo": 3331,
  "exec": 3332,
  "eukary": 3333,
  "establishing": 3334,
  "estic": 3335,
  "erarch": 3336,
  "environment": 3337,
  "ector": 3338,
  "disclosed": 3339,
  "diag": 3340,
  "determining": 3341,
  "decad": 3342,
  "crip": 3343,
  "corresponding": 3344,
  "conducted": 3345,
  "composition": 3346,
  "combines": 3347,
  "covers": 3348,
  "coast": 3349,
  "cling": 3350,
  "civilian": 3351,
  "characterized": 3352,
  "charged": 3353,
  "chol": 3354,
  "cells,": 3355,
  "cedure": 3356,
  "category": 3357,
  "cust": 3358,
  "cam": 3359,
  "bodies": 3360,
  "blue": 3361,
  "bul": 3362,
  "bow": 3363,
  "bits": 3364,
  "attle": 3365,
  "ata": 3366,
  "astern": 3367,
  "asse": 3368,
  "anim": 3369,
  "amount": 3370,
  "amino": 3371,
  "altern": 3372,
  "alter": 3373,
  "allo": 3374,
  "agricul": 3375,
  "advanced": 3376,
  "adop": 3377,
  "accommodation": 3378,
  "aut": 3379,
  "Zone": 3380,
  "United": 3381,
  "Super": 3382,
  "Sim": 3383,
  "Si": 3384,
  "SQ": 3385,
  "Procedure": 3386,
  "Post": 3387,
  "Office": 3388,
  "OH": 3389,
  "No.": 3390,
  "NS": 3391,
  "Modern": 3392,
  "Molec": 3393,
  "Mediter": 3394,
  "Medical": 3395,
  "Martial": 3396,
  "Mid": 3397,
  "Mic": 3398,
  "Me": 3399,
  "MR": 3400,
  "Ka": 3401,
  "Isra": 3402,
  "Hydro": 3403,
  "Ho": 3404,
  "Gra": 3405,
  "Electr": 3406,
  "CPIOs": 3407,
  "Ci": 3408,
  "Bang": 3409,
  "Army,": 3410,
  "Antarctic": 3411,
  "Allow": 3412,
  "Act.": 3413,
  "ATP": 3414,
  "45": 3415,
  "196": 3416,
  "-based": 3417,
  "(g)": 3418,
  "\").": 3419,
  "\")": 3420,
  "whose": 3421,
  "web": 3422,
  "volcan": 3423,
  "virtual": 3424,
  "violent": 3425,
  "values": 3426,
  "uten": 3427,
  "ulated": 3428,
  "uel": 3429,
  "transparency": 3430,
  "transmission": 3431,
  "traffic": 3432,
  "tion:": 3433,
  "therap": 3434,
  "theore": 3435,
  "tub": 3436,
  "tle": 3437,
  "tage": 3438,
  "synthesis.": 3439,
  "survi": 3440,
  "superi": 3441,
  "superior": 3442,
  "sphere,": 3443,
  "specified": 3444,
  "space,": 3445,
  "simple": 3446,
  "signals": 3447,
  "sibility": 3448,
  "sha": 3449,
  "service.": 3450,
  "secure": 3451,
  "screen": 3452,
  "scale": 3453,
  "sent": 3454,
  "ried": 3455,
  "retire": 3456,
  "responses": 3457,
  "restric": 3458,
  "resid": 3459,
  "renewable": 3460,
  "related": 3461,
  "register": 3462,
  "reducing": 3463,
  "real-": 3464,
  "revision": 3465,
  "rever": 3466,
  "remo": 3467,
  "reh": 3468,
  "rehensive": 3469,
  "ratio": 3470,
  "raining": 3471,
  "radioactive": 3472,
  "protect": 3473,
  "preserv": 3474,
  "precip": 3475,
  "precipit": 3476,
  "power,": 3477,
  "posit": 3478,
  "polymers": 3479,
  "polic": 3480,
  "platform": 3481,
  "philoso": 3482,
  "phil": 3483,
  "pha": 3484,
  "permit": 3485,
  "perman": 3486,
  "petroleum": 3487,
  "parallel": 3488,
  "parent": 3489,
  "pump": 3490,
  "pon": 3491,
  "oxi": 3492,
  "ories,": 3493,
  "orient": 3494,
  "ores,": 3495,
  "opposite": 3496,
  "onnel": 3497,
  "omers": 3498,
  "offences": 3499,
  "obligations": 3500,
  "obj": 3501,
  "och": 3502,
  "noti": 3503,
  "neigh": 3504,
  "molecules,": 3505,
  "molecule": 3506,
  "missible": 3507,
  "metals,": 3508,
  "melting": 3509,
  "meter": 3510,
  "materials.": 3511,
  "mark": 3512,
  "mandatory": 3513,
  "maintains": 3514,
  "machine": 3515,
  "magn": 3516,
  "mone": 3517,
  "mere": 3518,
  "merely": 3519,
  "macro": 3520,
  "lunar": 3521,
  "locks": 3522,
  "locking": 3523,
  "lied": 3524,
  "layer": 3525,
  "lens": 3526,
  "later": 3527,
  "lat": 3528,
  "juris": 3529,
  "ization.": 3530,
  "ism,": 3531,
  "intermediate": 3532,
  "interaction": 3533,
  "information,": 3534,
  "incredibly": 3535,
  "instant": 3536,
  "input": 3537,
  "inning": 3538,
  "inner": 3539,
  "in-": 3540,
  "impos": 3541,
  "identifying": 3542,
  "identical": 3543,
  "ious": 3544,
  "ia.": 3545,
  "horizon": 3546,
  "histor": 3547,
  "herence": 3548,
  "heavier": 3549,
  "habit": 3550,
  "hed": 3551,
  "guarante": 3552,
  "graphic": 3553,
  "given": 3554,
  "great": 3555,
  "full": 3556,
  "fron": 3557,
  "fixed": 3558,
  "figur": 3559,
  "ffici": 3560,
  "feed": 3561,
  "fee": 3562,
  "eyond": 3563,
  "extr": 3564,
  "external": 3565,
  "expres": 3566,
  "er's": 3567,
  "ender": 3568,
  "encompass": 3569,
  "empowered": 3570,
  "early": 3571,
  "duty": 3572,
  "disput": 3573,
  "display": 3574,
  "designated": 3575,
  "demonstrate": 3576,
  "delay": 3577,
  "department": 3578,
  "depart": 3579,
  "damag": 3580,
  "ding": 3581,
  "dic": 3582,
  "craft": 3583,
  "corpor": 3584,
  "converts": 3585,
  "continent.": 3586,
  "content": 3587,
  "const": 3588,
  "configur": 3589,
  "competitive": 3590,
  "compet": 3591,
  "compar": 3592,
  "combus": 3593,
  "collision": 3594,
  "column": 3595,
  "classified": 3596,
  "characteristic": 3597,
  "chains": 3598,
  "cells.": 3599,
  "carbohy": 3600,
  "capture": 3601,
  "cum": 3602,
  "city": 3603,
  "cil": 3604,
  "care": 3605,
  "bot": 3606,
  "biom": 3607,
  "authority.": 3608,
  "atography": 3609,
  "aterials": 3610,
  "attribut": 3611,
  "astronom": 3612,
  "astic": 3613,
  "aro": 3614,
  "aptic": 3615,
  "ancient": 3616,
  "allowances": 3617,
  "always": 3618,
  "aksha": 3619,
  "aims": 3620,
  "ago": 3621,
  "accounts": 3622,
  "acceleration": 3623,
  "accelerating": 3624,
  "accept": 3625,
  "absor": 3626,
  "able,": 3627,
  "ability,": 3628,
  "abili": 3629,
  "agen": 3630,
  "Welfare": 3631,
  "Ty": 3632,
  "SQL": 3633,
  "Sci": 3634,
  "Raksha": 3635,
  "Princip": 3636,
  "Power": 3637,
  "Personnel": 3638,
  "Organisation": 3639,
  "O₂": 3640,
  "Naval": 3641,
  "Ministry's": 3642,
  "Middle": 3643,
  "Mediterranean": 3644,
  "Mantri": 3645,
  "Mand": 3646,
  "Internet": 3647,
  "Integrated": 3648,
  "India.": 3649,
  "Hubble": 3650,
  "Fund": 3651,
  "Earth.": 3652,
  "Dark": 3653,
  "DD": 3654,
  "Cont": 3655,
  "Comptroller": 3656,
  "Class": 3657,
  "Church": 3658,
  "Canteen": 3659,
  "Beyond": 3660,
  "Auditor": 3661,
  "Arab": 3662,
  "Africa.": 3663,
  "Affairs": 3664,
  "AR": 3665,
  "5,": 3666,
  "4-": 3667,
  "2019": 3668,
  "(N": 3669,
  "yo": 3670,
  "webs": 3671,
  "weather": 3672,
  "water.": 3673,
  "vary": 3674,
  "utenant": 3675,
  "units": 3676,
  "transl": 3677,
  "thirty-": 3678,
  "themsel": 3679,
  "thick": 3680,
  "synthesis,": 3681,
  "strug": 3682,
  "strict": 3683,
  "statement": 3684,
  "static": 3685,
  "store": 3686,
  "stations": 3687,
  "splitting": 3688,
  "spital": 3689,
  "spir": 3690,
  "sociated": 3691,
  "should": 3692,
  "semic": 3693,
  "sor": 3694,
  "sit": 3695,
  "rosion": 3696,
  "rop": 3697,
  "room": 3698,
  "romo": 3699,
  "rises": 3700,
  "rive": 3701,
  "ria": 3702,
  "revealing": 3703,
  "reshold": 3704,
  "reported": 3705,
  "remaining": 3706,
  "relating": 3707,
  "regulated": 3708,
  "rants": 3709,
  "rust": 3710,
  "quick": 3711,
  "publicly": 3712,
  "properties.": 3713,
  "properties,": 3714,
  "produced": 3715,
  "procurement,": 3716,
  "processes.": 3717,
  "procedural": 3718,
  "proble": 3719,
  "prob": 3720,
  "posting": 3721,
  "post-": 3722,
  "poll": 3723,
  "plasma": 3724,
  "planetary": 3725,
  "planets": 3726,
  "phone": 3727,
  "pendic": 3728,
  "pendicular": 3729,
  "pepti": 3730,
  "pun": 3731,
  "ped": 3732,
  "oxygen,": 3733,
  "overall": 3734,
  "original": 3735,
  "ordinarily": 3736,
  "orbitals": 3737,
  "ochond": 3738,
  "neighb": 3739,
  "nearly": 3740,
  "molecules.": 3741,
  "models": 3742,
  "metallic": 3743,
  "metr": 3744,
  "methan": 3745,
  "means": 3746,
  "manufacturing": 3747,
  "managed": 3748,
  "maintenance": 3749,
  "mathe": 3750,
  "mation": 3751,
  "mant": 3752,
  "m,": 3753,
  "load": 3754,
  "living": 3755,
  "lif": 3756,
  "leaves": 3757,
  "knowledge": 3758,
  "kilometers": 3759,
  "kele": 3760,
  "ium-": 3761,
  "ionic": 3762,
  "involve": 3763,
  "invoked": 3764,
  "interpre": 3765,
  "influence": 3766,
  "in,": 3767,
  "images": 3768,
  "ics,": 3769,
  "ices.": 3770,
  "ies,": 3771,
  "home": 3772,
  "highest": 3773,
  "hierarch": 3774,
  "having": 3775,
  "guard": 3776,
  "graph": 3777,
  "geopolitical": 3778,
  "gel": 3779,
  "gent": 3780,
  "gence": 3781,
  "gam": 3782,
  "gain": 3783,
  "forced": 3784,
  "follows": 3785,
  "fila": 3786,
  "fifteen": 3787,
  "few": 3788,
  "famous": 3789,
  "flo": 3790,
  "explosion": 3791,
  "exploits": 3792,
  "expenditure,": 3793,
  "existing": 3794,
  "exception": 3795,
  "example,": 3796,
  "exer": 3797,
  "examin": 3798,
  "exact": 3799,
  "events": 3800,
  "es)": 3801,
  "ervous": 3802,
  "er:": 3803,
  "equipment,": 3804,
  "enthalpy": 3805,
  "engines": 3806,
  "ends": 3807,
  "eness": 3808,
  "emerged": 3809,
  "emit": 3810,
  "electrons,": 3811,
  "electricity": 3812,
  "eutenant": 3813,
  "driving": 3814,
  "drives": 3815,
  "documentation": 3816,
  "divided": 3817,
  "dissociation": 3818,
  "direction": 3819,
  "dimension": 3820,
  "dependence": 3821,
  "density": 3822,
  "deliver": 3823,
  "deploy": 3824,
  "dem": 3825,
  "dynamic": 3826,
  "dating": 3827,
  "currently": 3828,
  "crystall": 3829,
  "correct": 3830,
  "continue": 3831,
  "constitute": 3832,
  "conjugate": 3833,
  "conditions.": 3834,
  "conven": 3835,
  "computing": 3836,
  "compounds,": 3837,
  "competent": 3838,
  "coin": 3839,
  "circum": 3840,
  "chool": 3841,
  "charges": 3842,
  "cep": 3843,
  "cancer": 3844,
  "cause": 3845,
  "buffer": 3846,
  "bonds,": 3847,
  "billions": 3848,
  "becoming": 3849,
  "basic": 3850,
  "band": 3851,
  "atmospheric": 3852,
  "ate.": 3853,
  "as,": 3854,
  "arising": 3855,
  "appropriate": 3856,
  "appear": 3857,
  "antigen": 3858,
  "ammonia": 3859,
  "ality": 3860,
  "agree": 3861,
  "achieved": 3862,
  "actic": 3863,
  "acces": 3864,
  "System**": 3865,
  "Structure": 3866,
  "Sup": 3867,
  "Scheme": 3868,
  "Russi": 3869,
  "Ref": 3870,
  "Ob": 3871,
  "Mem": 3872,
  "Life": 3873,
  "Lieutenant": 3874,
  "Legal": 3875,
  "Jap": 3876,
  "Imp": 3877,
  "Hor": 3878,
  "Histor": 3879,
  "Germany": 3880,
  "Gold": 3881,
  "Dem": 3882,
  "Dec": 3883,
  "DP": 3884,
  "Contro": 3885,
  "Chris": 3886,
  "Budget": 3887,
  "America": 3888,
  "Alk": 3889,
  "Ag": 3890,
  "8,": 3891,
  "2020,": 3892,
  "2024-": 3893,
  "10⁻": 3894,
  "100": 3895,
  "-base": 3896,
  "**Part": 3897,
  "(in": 3898,
  "(K": 3899,
  "()": 3900,
  "zones": 3901,
  "year,": 3902,
  "word": 3903,
  "widow": 3904,
  "walls": 3905,
  "win": 3906,
  "wide": 3907,
  "wat": 3908,
  "volu": 3909,
  "voltage": 3910,
  "vious": 3911,
  "vere": 3912,
  "vereign": 3913,
  "vereignty": 3914,
  "valuable": 3915,
  "vo": 3916,
  "varies": 3917,
  "van": 3918,
  "utory": 3919,
  "urban": 3920,
  "universe.": 3921,
  "udal": 3922,
  "uctu": 3923,
  "util": 3924,
  "types": 3925,
  "treatment": 3926,
  "transferred": 3927,
  "transformed": 3928,
  "tools": 3929,
  "tissue": 3930,
  "thereby": 3931,
  "threshold": 3932,
  "terms": 3933,
  "techni": 3934,
  "team": 3935,
  "taneity": 3936,
  "tors": 3937,
  "tiny": 3938,
  "tation": 3939,
  "tabl": 3940,
  "success": 3941,
  "sub-": 3942,
  "suffici": 3943,
  "statutory": 3944,
  "stri": 3945,
  "stores": 3946,
  "speeds": 3947,
  "speed.": 3948,
  "sovereignty": 3949,
  "smaller": 3950,
  "sitions": 3951,
  "shape": 3952,
  "share": 3953,
  "several": 3954,
  "setting": 3955,
  "services,": 3956,
  "semiconduc": 3957,
  "self-": 3958,
  "scrutin": 3959,
  "sanctioning": 3960,
  "roughly": 3961,
  "reshap": 3962,
  "restrial": 3963,
  "ress,": 3964,
  "request": 3965,
  "released": 3966,
  "relationships": 3967,
  "relativity": 3968,
  "regarding": 3969,
  "reflects": 3970,
  "reduced": 3971,
  "recorded": 3972,
  "recru": 3973,
  "refr": 3974,
  "ream": 3975,
  "ranks": 3976,
  "rays": 3977,
  "rings": 3978,
  "punish": 3979,
  "protection": 3980,
  "protected": 3981,
  "previous": 3982,
  "posal": 3983,
  "polarization": 3984,
  "pop": 3985,
  "placed": 3986,
  "plus": 3987,
  "phosphate": 3988,
  "pher": 3989,
  "phases": 3990,
  "perpendicular": 3991,
  "permissible": 3992,
  "perfect": 3993,
  "payable": 3994,
  "patterns,": 3995,
  "partially": 3996,
  "party": 3997,
  "parts": 3998,
  "past": 3999,
  "pan": 4000,
  "oxidiz": 4001,
  "orders.": 4002,
  "operates": 4003,
  "operate": 4004,
  "ongoing": 4005,
  "on.": 4006,
  "on-": 4007,
  "ollowing": 4008,
  "ology": 4009,
  "numer": 4010,
  "nology": 4011,
  "nual": 4012,
  "nic": 4013,
  "milest": 4014,
  "metabolic": 4015,
  "master": 4016,
  "m/s": 4017,
  "lying": 4018,
  "localized": 4019,
  "location": 4020,
  "lost": 4021,
  "lling": 4022,
  "ligible": 4023,
  "liv": 4024,
  "liber": 4025,
  "laws": 4026,
  "launch": 4027,
  "lu": 4028,
  "lits": 4029,
  "keep": 4030,
  "ky": 4031,
  "k.": 4032,
  "items": 4033,
  "itect": 4034,
  "iss": 4035,
  "island": 4036,
  "isation,": 4037,
  "ions,": 4038,
  "intelligence": 4039,
  "integration": 4040,
  "initiated": 4041,
  "information.": 4042,
  "inese": 4043,
  "inerti": 4044,
  "indicates": 4045,
  "inside": 4046,
  "incorpor": 4047,
  "importance": 4048,
  "imperial": 4049,
  "identified": 4050,
  "ired": 4051,
  "ili": 4052,
  "i-": 4053,
  "hydroxide": 4054,
  "hundreds": 4055,
  "humanity": 4056,
  "history,": 4057,
  "hap": 4058,
  "grounds": 4059,
  "greater": 4060,
  "gorithm": 4061,
  "goods": 4062,
  "gluco": 4063,
  "glucose": 4064,
  "geometry": 4065,
  "frequently": 4066,
  "frequency": 4067,
  "frared": 4068,
  "format": 4069,
  "forces.": 4070,
  "fluctu": 4071,
  "filaments": 4072,
  "fertiliz": 4073,
  "extending": 4074,
  "exposure": 4075,
  "exc": 4076,
  "evaluation": 4077,
  "ethyl": 4078,
  "ession": 4079,
  "ership": 4080,
  "equals": 4081,
  "entirely": 4082,
  "entang": 4083,
  "ending": 4084,
  "emic": 4085,
  "elimin": 4086,
  "elesco": 4087,
  "elescope": 4088,
  "el,": 4089,
  "effects": 4090,
  "educ": 4091,
  "east": 4092,
  "domestic": 4093,
  "disputes": 4094,
  "differences": 4095,
  "diges": 4096,
  "diffic": 4097,
  "developed": 4098,
  "destro": 4099,
  "describes": 4100,
  "demo": 4101,
  "demand": 4102,
  "dwarf": 4103,
  "dual": 4104,
  "currency": 4105,
  "currence": 4106,
  "crypto": 4107,
  "covering": 4108,
  "cosmo": 4109,
  "contact": 4110,
  "concurrence": 4111,
  "concl": 4112,
  "composed": 4113,
  "comprehensive": 4114,
  "commercial": 4115,
  "collisions": 4116,
  "color": 4117,
  "covery": 4118,
  "circumstances": 4119,
  "chec": 4120,
  "challenges": 4121,
  "cha": 4122,
  "categor": 4123,
  "carbon-": 4124,
  "camp": 4125,
  "cast": 4126,
  "boiling": 4127,
  "brow": 4128,
  "borders": 4129,
  "avoid": 4130,
  "aval": 4131,
  "authority,": 4132,
  "attemp": 4133,
  "astro": 4134,
  "ases.": 4135,
  "area.": 4136,
  "ange": 4137,
  "altitude": 4138,
  "alone": 4139,
  "aired": 4140,
  "affects": 4141,
  "adverse": 4142,
  "acids,": 4143,
  "accum": 4144,
  "acy,": 4145,
  "absence": 4146,
  "a*": 4147,
  "Where": 4148,
  "With": 4149,
  "VR": 4150,
  "Union": 4151,
  "Transition": 4152,
  "Technology": 4153,
  "Training": 4154,
  "Ti": 4155,
  "Ter": 4156,
  "TTP": 4157,
  "Sea": 4158,
  "Such": 4159,
  "SD": 4160,
  "Report": 4161,
  "Rules": 4162,
  "Ren": 4163,
  "Rel": 4164,
  "RO": 4165,
  "Process": 4166,
  "Principal": 4167,
  "Plan": 4168,
  "Ord": 4169,
  "One": 4170,
  "Newton": 4171,
  "Light": 4172,
  "Jo": 4173,
  "Islamic": 4174,
  "India's": 4175,
  "HC": 4176,
  "Group": 4177,
  "Following": 4178,
  "Engine": 4179,
  "Egypt": 4180,
  "ES": 4181,
  "Division": 4182,
  "Council": 4183,
  "Christian": 4184,
  "Chinese": 4185,
  "Cantonment": 4186,
  "CO₂": 4187,
  "Cap": 4188,
  "CA": 4189,
  "Black": 4190,
  "Applications": 4191,
  "Annual": 4192,
  "African": 4193,
  "Account": 4194,
  "Agn": 4195,
  "9,": 4196,
  "8(1)(a)": 4197,
  "86": 4198,
  "50": 4199,
  "400": 4200,
  "2024-25": 4201,
  "199": 4202,
  "1,": 4203,
  "(c": 4204,
  "zard": 4205,
  "witness": 4206,
  "white": 4207,
  "website": 4208,
  "weapons": 4209,
  "wealth": 4210,
  "warr": 4211,
  "wo": 4212,
  "wise": 4213,
  "western": 4214,
  "west": 4215,
  "volume": 4216,
  "visual": 4217,
  "vio": 4218,
  "violet": 4219,
  "versal": 4220,
  "utes": 4221,
  "urring": 4222,
  "urgency": 4223,
  "ures.": 4224,
  "understand": 4225,
  "ulf": 4226,
  "udget,": 4227,
  "upl": 4228,
  "uph": 4229,
  "ulo": 4230,
  "twenty-five": 4231,
  "twin": 4232,
  "turb": 4233,
  "traveling": 4234,
  "transpor": 4235,
  "transformation": 4236,
  "transform": 4237,
  "tion**": 4238,
  "time,": 4239,
  "ticle": 4240,
  "tism": 4241,
  "tish": 4242,
  "tile": 4243,
  "themselves": 4244,
  "throw": 4245,
  "thin": 4246,
  "termine": 4247,
  "tensive": 4248,
  "take": 4249,
  "tes": 4250,
  "tas": 4251,
  "supporting": 4252,
  "sulfuric": 4253,
  "sufficient": 4254,
  "substances": 4255,
  "structure,": 4256,
  "stronger": 4257,
  "strate": 4258,
  "status": 4259,
  "states.": 4260,
  "stability,": 4261,
  "sought": 4262,
  "southern": 4263,
  "sixty": 4264,
  "sionate": 4265,
  "silicon": 4266,
  "shield": 4267,
  "shell": 4268,
  "servation": 4269,
  "seek": 4270,
  "secre": 4271,
  "seen": 4272,
  "scopy": 4273,
  "scope": 4274,
  "sanctions": 4275,
  "safeguard": 4276,
  "stic": 4277,
  "squ": 4278,
  "skele": 4279,
  "sched": 4280,
  "s).": 4281,
  "rule": 4282,
  "romosom": 4283,
  "ritain": 4284,
  "ritish": 4285,
  "rights": 4286,
  "regi": 4287,
  "refers": 4288,
  "recognize": 4289,
  "recover": 4290,
  "received": 4291,
  "receive": 4292,
  "recurring": 4293,
  "recent": 4294,
  "ready": 4295,
  "re-employment": 4296,
  "reverse": 4297,
  "repe": 4298,
  "raph": 4299,
  "random": 4300,
  "radical": 4301,
  "rus": 4302,
  "pull": 4303,
  "protects": 4304,
  "progress": 4305,
  "problem": 4306,
  "projects": 4307,
  "proces": 4308,
  "pressure,": 4309,
  "posted": 4310,
  "polymerase": 4311,
  "pose": 4312,
  "plays": 4313,
  "plate": 4314,
  "plants,": 4315,
  "plant": 4316,
  "photons": 4317,
  "phones": 4318,
  "pharm": 4319,
  "periodically": 4320,
  "patterns.": 4321,
  "pite": 4322,
  "pion": 4323,
  "pione": 4324,
  "organized": 4325,
  "ordination": 4326,
  "operations": 4327,
  "occas": 4328,
  "observations": 4329,
  "neutrons": 4330,
  "neuron": 4331,
  "naval": 4332,
  "name": 4333,
  "monitoring": 4334,
  "mono": 4335,
  "motor": 4336,
  "mitochond": 4337,
  "mirrors": 4338,
  "migr": 4339,
  "mediately": 4340,
  "mass.": 4341,
  "map": 4342,
  "longest": 4343,
  "loo": 4344,
  "linear": 4345,
  "linked": 4346,
  "likely": 4347,
  "life.": 4348,
  "ligh": 4349,
  "ization,": 4350,
  "ities,": 4351,
  "ites,": 4352,
  "itch": 4353,
  "isolation": 4354,
  "isolated": 4355,
  "ism**": 4356,
  "invad": 4357,
  "intermedi": 4358,
  "intended": 4359,
  "insula": 4360,
  "inely": 4361,
  "increased": 4362,
  "instances": 4363,
  "infl": 4364,
  "ically,": 4365,
  "i-Fi": 4366,
  "ied": 4367,
  "holds": 4368,
  "hospital": 4369,
  "herit": 4370,
  "hash": 4371,
  "hardware": 4372,
  "handle": 4373,
  "half-": 4374,
  "hazard": 4375,
  "hes": 4376,
  "geological": 4377,
  "generating": 4378,
  "generate": 4379,
  "gation": 4380,
  "fost": 4381,
  "filled": 4382,
  "ferred": 4383,
  "feudal": 4384,
  "factory": 4385,
  "factors": 4386,
  "fuse": 4387,
  "ft,": 4388,
  "eyes": 4389,
  "exhibiting": 4390,
  "exempts": 4391,
  "examine": 4392,
  "excl": 4393,
  "excess": 4394,
  "establishment": 4395,
  "es—": 4396,
  "ents.": 4397,
  "enhouse": 4398,
  "endri": 4399,
  "enough": 4400,
  "emb": 4401,
  "effected": 4402,
  "edge": 4403,
  "economy": 4404,
  "eg": 4405,
  "drive": 4406,
  "division": 4407,
  "disclose": 4408,
  "disrup": 4409,
  "disposal": 4410,
  "discovery": 4411,
  "diagno": 4412,
  "diver": 4413,
  "dilation": 4414,
  "developers": 4415,
  "departments": 4416,
  "demonstrates": 4417,
  "determine": 4418,
  "data.": 4419,
  "crores,": 4420,
  "criter": 4421,
  "converting": 4422,
  "continuously": 4423,
  "consisting": 4424,
  "connec": 4425,
  "conductivity": 4426,
  "concerned": 4427,
  "comprises": 4428,
  "compared": 4429,
  "combined": 4430,
  "combine": 4431,
  "colors": 4432,
  "covalent": 4433,
  "coupl": 4434,
  "copy": 4435,
  "cohol": 4436,
  "cloud": 4437,
  "citizens": 4438,
  "circulars": 4439,
  "chromatography": 4440,
  "chloride": 4441,
  "channels": 4442,
  "changes.": 4443,
  "cessive": 4444,
  "certified": 4445,
  "certific": 4446,
  "center": 4447,
  "cell.": 4448,
  "catalysts": 4449,
  "carbohydr": 4450,
  "capac": 4451,
  "camer": 4452,
  "brief": 4453,
  "bitr": 4454,
  "big": 4455,
  "bet": 4456,
  "bad": 4457,
  "ay,": 4458,
  "authorized": 4459,
  "atile": 4460,
  "assionate": 4461,
  "aromatic": 4462,
  "arian": 4463,
  "arbitr": 4464,
  "aper": 4465,
  "annually": 4466,
  "ances.": 4467,
  "allot": 4468,
  "als,": 4469,
  "alcohol": 4470,
  "aging": 4471,
  "ages.": 4472,
  "action.": 4473,
  "actual": 4474,
  "accurate": 4475,
  "accessible": 4476,
  "ably": 4477,
  "aw": 4478,
  "aan": 4479,
  "What": 4480,
  "Wi-Fi": 4481,
  "Upon": 4482,
  "Transport": 4483,
  "Their": 4484,
  "Strong": 4485,
  "Stars": 4486,
  "Syn": 4487,
  "Sol": 4488,
  "Revolution**": 4489,
  "Regulations": 4490,
  "Republic": 4491,
  "Reaction": 4492,
  "Roc": 4493,
  "Right": 4494,
  "Ques": 4495,
  "Quar": 4496,
  "Protocol": 4497,
  "Post-": 4498,
  "Polymer": 4499,
  "Parliament": 4500,
  "Pri": 4501,
  "Pho": 4502,
  "Pension": 4503,
  "Pen": 4504,
  "Pe": 4505,
  "O,": 4506,
  "Model": 4507,
  "Main": 4508,
  "Mag": 4509,
  "Joint": 4510,
  "Japan": 4511,
  "ISRO": 4512,
  "Human": 4513,
  "Gib": 4514,
  "German": 4515,
  "General's": 4516,
  "Gol": 4517,
  "Ge": 4518,
  "GP": 4519,
  "Field": 4520,
  "Fun": 4521,
  "Fact": 4522,
  "Empire,": 4523,
  "El": 4524,
  "ER": 4525,
  "Design": 4526,
  "Dig": 4527,
  "Data": 4528,
  "DS": 4529,
  "Committee": 4530,
  "Commander": 4531,
  "Common": 4532,
  "Comb": 4533,
  "Chemistry": 4534,
  "Carbon": 4535,
  "Cry": 4536,
  "Cons": 4537,
  "Cold": 4538,
  "Can": 4539,
  "CM": 4540,
  "C)": 4541,
  "British": 4542,
  "Britain": 4543,
  "Americas": 4544,
  "Adviser": 4545,
  "Are": 4546,
  "Am": 4547,
  "9–": 4548,
  "70": 4549,
  "21st": 4550,
  "22": 4551,
  "1950": 4552,
  "197": 4553,
  "18/": 4554,
  "-level": 4555,
  "-bound": 4556,
  "**T": 4557,
  "**S": 4558,
  "(or": 4559,
  "(R": 4560,
  "(I": 4561,
  "zing": 4562,
  "zen": 4563,
  "yi": 4564,
  "yield": 4565,
  "yag": 4566,
  "ya": 4567,
  "xy": 4568,
  "working": 4569,
  "withheld": 4570,
  "weight": 4571,
  "welfare": 4572,
  "wear": 4573,
  "volatile": 4574,
  "violation": 4575,
  "vibr": 4576,
  "vessels": 4577,
  "vesti": 4578,
  "vital": 4579,
  "vin": 4580,
  "vest": 4581,
  "uster": 4582,
  "useful": 4583,
  "universal": 4584,
  "unified": 4585,
  "unless": 4586,
  "ultimate": 4587,
  "ulti": 4588,
  "ulate": 4589,
  "uto": 4590,
  "uter": 4591,
  "u,": 4592,
  "twor": 4593,
  "tributory": 4594,
  "travels": 4595,
  "traviolet": 4596,
  "touch": 4597,
  "titutions": 4598,
  "timely": 4599,
  "third-": 4600,
  "theoretical": 4601,
  "thy": 4602,
  "tender": 4603,
  "temperatur": 4604,
  "technology,": 4605,
  "technological": 4606,
  "tlement": 4607,
  "tel": 4608,
  "synthesize": 4609,
  "synaptic": 4610,
  "sym": 4611,
  "swer:": 4612,
  "surface,": 4613,
  "surfac": 4614,
  "support": 4615,
  "subsequently": 4616,
  "state,": 4617,
  "standar": 4618,
  "stop": 4619,
  "stom": 4620,
  "square": 4621,
  "spontaneity": 4622,
  "spectroscopy": 4623,
  "spective": 4624,
  "smooth": 4625,
  "slower": 4626,
  "sky": 4627,
  "sively": 4628,
  "shows": 4629,
  "showing": 4630,
  "shifting": 4631,
  "servers": 4632,
  "sensor": 4633,
  "semiconductor": 4634,
  "second-": 4635,
  "section": 4636,
  "seven": 4637,
  "sees": 4638,
  "seed": 4639,
  "search": 4640,
  "scientists": 4641,
  "samp": 4642,
  "sus": 4643,
  "stim": 4644,
  "spo": 4645,
  "satur": 4646,
  "sac": 4647,
  "runs": 4648,
  "rules.": 4649,
  "rought": 4650,
  "rotation": 4651,
  "ribosomes": 4652,
  "rix": 4653,
  "revolutionary": 4654,
  "response,": 4655,
  "reservo": 4656,
  "reservoir": 4657,
  "requirements.": 4658,
  "relativ": 4659,
  "regulate": 4660,
  "recycling": 4661,
  "recommendations": 4662,
  "removing": 4663,
  "reli": 4664,
  "reim": 4665,
  "reimbur": 4666,
  "refin": 4667,
  "reci": 4668,
  "quiry": 4669,
  "quarterly": 4670,
  "qubit": 4671,
  "quate": 4672,
  "proteins,": 4673,
  "programmes": 4674,
  "production.": 4675,
  "procedures": 4676,
  "privacy": 4677,
  "primar": 4678,
  "primarily": 4679,
  "predict": 4680,
  "precision": 4681,
  "prices": 4682,
  "price": 4683,
  "ports": 4684,
  "plastic": 4685,
  "permitted": 4686,
  "permanent": 4687,
  "pending": 4688,
  "pathway": 4689,
  "partial": 4690,
  "pati": 4691,
  "pal": 4692,
  "ory,": 4693,
  "organs.": 4694,
  "order.": 4695,
  "optimization": 4696,
  "operating": 4697,
  "optical": 4698,
  "ongol": 4699,
  "ono": 4700,
  "officials": 4701,
  "officers,": 4702,
  "offering": 4703,
  "offers": 4704,
  "offence": 4705,
  "occasion": 4706,
  "ophy": 4707,
  "oog": 4708,
  "o,": 4709,
  "notified": 4710,
  "non-violent": 4711,
  "neutral": 4712,
  "ness.": 4713,
  "ney": 4714,
  "neuro": 4715,
  "nervous": 4716,
  "nance": 4717,
  "movements": 4718,
  "modified": 4719,
  "milit": 4720,
  "microscop": 4721,
  "methane": 4722,
  "members": 4723,
  "mechanics": 4724,
  "mathema": 4725,
  "mathematical": 4726,
  "married": 4727,
  "majority": 4728,
  "machiner": 4729,
  "mail": 4730,
  "llation": 4731,
  "lipids": 4732,
  "ligand": 4733,
  "live": 4734,
  "lexand": 4735,
  "levels.": 4736,
  "levels": 4737,
  "level,": 4738,
  "legi": 4739,
  "left": 4740,
  "law.": 4741,
  "launched": 4742,
  "land,": 4743,
  "kill": 4744,
  "jurisdic": 4745,
  "join": 4746,
  "jour": 4747,
  "ither": 4748,
  "isotop": 4749,
  "isto": 4750,
  "is,": 4751,
  "is**": 4752,
  "ird": 4753,
  "ions.": 4754,
  "interact": 4755,
  "integrity": 4756,
  "insul": 4757,
  "institutions": 4758,
  "ings,": 4759,
  "influencing": 4760,
  "ine.": 4761,
  "independently": 4762,
  "innov": 4763,
  "ink": 4764,
  "inf": 4765,
  "ines,": 4766,
  "immediately": 4767,
  "immediate": 4768,
  "iled": 4769,
  "ights": 4770,
  "ifying": 4771,
  "identity": 4772,
  "identifies": 4773,
  "ids": 4774,
  "iod": 4775,
  "image": 4776,
  "ij": 4777,
  "hydrogen,": 4778,
  "hypo": 4779,
  "history.": 4780,
  "highlighted": 4781,
  "heads": 4782,
  "halogen": 4783,
  "greatest": 4784,
  "gravity,": 4785,
  "gradi": 4786,
  "glyco": 4787,
  "glob": 4788,
  "geographic": 4789,
  "generated": 4790,
  "gies": 4791,
  "ges.": 4792,
  "ges,": 4793,
  "gases": 4794,
  "game": 4795,
  "ga": 4796,
  "forcement": 4797,
  "force,": 4798,
  "finite": 4799,
  "filed": 4800,
  "fields,": 4801,
  "fire": 4802,
  "factor": 4803,
  "fair": 4804,
  "explain": 4805,
  "exceptional": 4806,
  "establishments": 4807,
  "escap": 4808,
  "ers:": 4809,
  "equations": 4810,
  "ents,": 4811,
  "ent.": 4812,
  "ent,": 4813,
  "encryp": 4814,
  "encies": 4815,
  "enced": 4816,
  "ember": 4817,
  "elled": 4818,
  "electrochemical": 4819,
  "elhi": 4820,
  "elastic": 4821,
  "effectively": 4822,
  "edar": 4823,
  "ecosystems": 4824,
  "ecra": 4825,
  "dominant": 4826,
  "domain": 4827,
  "disclosure,": 4828,
  "dissol": 4829,
  "dismant": 4830,
  "divide": 4831,
  "despite": 4832,
  "desert": 4833,
  "deser": 4834,
  "deri": 4835,
  "dense": 4836,
  "defini": 4837,
  "decreases": 4838,
  "decades,": 4839,
  "degrad": 4840,
  "defe": 4841,
  "dece": 4842,
  "day.": 4843,
  "daily": 4844,
  "dict": 4845,
  "cytoplas": 4846,
  "custom": 4847,
  "culmin": 4848,
  "cription": 4849,
  "creation": 4850,
  "crash": 4851,
  "counter": 4852,
  "copper": 4853,
  "cooling": 4854,
  "conversion": 4855,
  "controls": 4856,
  "contraction": 4857,
  "consolidated": 4858,
  "confidential": 4859,
  "confidence": 4860,
  "contribution": 4861,
  "consequences": 4862,
  "conqu": 4863,
  "completely": 4864,
  "committed": 4865,
  "combustion": 4866,
  "colonial": 4867,
  "closed": 4868,
  "circul": 4869,
  "cium": 4870,
  "cholars": 4871,
  "chemistry.": 4872,
  "chemistry,": 4873,
  "checks": 4874,
  "change.": 4875,
  "cepts": 4876,
  "century.": 4877,
  "century,": 4878,
  "cathode": 4879,
  "cathod": 4880,
  "carries": 4881,
  "canteen": 4882,
  "cut": 4883,
  "curement": 4884,
  "clim": 4885,
  "burn": 4886,
  "breakdown": 4887,
  "branch": 4888,
  "blockchain": 4889,
  "benefits": 4890,
  "behind": 4891,
  "begins": 4892,
  "beta": 4893,
  "background": 4894,
  "backbone": 4895,
  "ayer": 4896,
  "attached": 4897,
  "associated": 4898,
  "as.": 4899,
  "ariat": 4900,
  "architect": 4901,
  "appointment": 4902,
  "appearing": 4903,
  "applies": 4904,
  "applied": 4905,
  "apping": 4906,
  "angle": 4907,
  "analytical": 4908,
  "anode": 4909,
  "almost": 4910,
  "aircraft": 4911,
  "ainik": 4912,
  "agriculture": 4913,
  "agencies": 4914,
  "agg": 4915,
  "adopted": 4916,
  "adherence": 4917,
  "activity,": 4918,
  "according": 4919,
  "accused": 4920,
  "acquisition": 4921,
  "accomp": 4922,
  "abund": 4923,
  "absol": 4924,
  "ama": 4925,
  "aiss": 4926,
  "Valle": 4927,
  "Thermo": 4928,
  "There": 4929,
  "Tra": 4930,
  "Subedar": 4931,
  "Southern": 4932,
  "Scienti": 4933,
  "Smart": 4934,
  "Sainik": 4935,
  "S,": 4936,
  "Reserve": 4937,
  "Renaiss": 4938,
  "Radio": 4939,
  "Rome": 4940,
  "Question:": 4941,
  "Prote": 4942,
  "Program": 4943,
  "Procurement": 4944,
  "Policy": 4945,
  "Polar": 4946,
  "Persian": 4947,
  "Pal": 4948,
  "Organisation,": 4949,
  "Ordnance": 4950,
  "Orbit": 4951,
  "Newton's": 4952,
  "Molecular": 4953,
  "Mount": 4954,
  "Mandel": 4955,
  "Mus": 4956,
  "Multi": 4957,
  "Mis": 4958,
  "Latin": 4959,
  "Kingdom": 4960,
  "Intel": 4961,
  "ISP": 4962,
  "III": 4963,
  "Iran": 4964,
  "Health": 4965,
  "HTTP": 4966,
  "Gibbs": 4967,
  "Gre": 4968,
  "Gal": 4969,
  "Fe": 4970,
  "Electric": 4971,
  "Earth,": 4972,
  "ESW": 4973,
  "Every": 4974,
  "Emer": 4975,
  "Eastern": 4976,
  "Defence.": 4977,
  "DNA,": 4978,
  "DA": 4979,
  "Cycle": 4980,
  "Confidential": 4981,
  "Contributory": 4982,
  "Coordination": 4983,
  "Colo": 4984,
  "Code": 4985,
  "Civi": 4986,
  "CPIO's": 4987,
  "CPU": 4988,
  "Cur": 4989,
  "Climate": 4990,
  "Cir": 4991,
  "Cer": 4992,
  "Cas": 4993,
  "Buy": 4994,
  "Brigadi": 4995,
  "Board,": 4996,
  "Anti": 4997,
  "Answer:": 4998,
  "Austr": 4999
}